/* Copyright 2019 The TensorFlow Authors. All Rights Reserved.

Licensed under the Apache License, Version 2.0 (the "License");
you may not use this file except in compliance with the License.
You may obtain a copy of the License at

    http://www.apache.org/licenses/LICENSE-2.0

Unless required by applicable law or agreed to in writing, software
distributed under the License is distributed on an "AS IS" BASIS,
WITHOUT WARRANTIES OR CONDITIONS OF ANY KIND, either express or implied.
See the License for the specific language governing permissions and
limitations under the License.
==============================================================================*/

// Automatically created from a TensorFlow Lite flatbuffer using the command:
// xxd -i magic_wand_model.tflite > magic_wand_model_data.cc
// See the README for a full description of the creation process.

#include "tof_detector_model_data.h"

// We need to keep the data array aligned on some architectures.
#ifdef __has_attribute
#define HAVE_ATTRIBUTE(x) __has_attribute(x)
#else
#define HAVE_ATTRIBUTE(x) 0
#endif
#if HAVE_ATTRIBUTE(aligned) || (defined(__GNUC__) && !defined(__clang__))
#define DATA_ALIGN_ATTRIBUTE __attribute__((aligned(4)))
#else
#define DATA_ALIGN_ATTRIBUTE
#endif

const unsigned char g_tof_detector_model_data[] DATA_ALIGN_ATTRIBUTE = {
    0x1c, 0x00, 0x00, 0x00, 0x54, 0x46, 0x4c, 0x33, 0x14, 0x00, 0x20, 0x00,
  0x1c, 0x00, 0x18, 0x00, 0x14, 0x00, 0x10, 0x00, 0x0c, 0x00, 0x00, 0x00,
  0x08, 0x00, 0x04, 0x00, 0x14, 0x00, 0x00, 0x00, 0x1c, 0x00, 0x00, 0x00,
  0x84, 0x00, 0x00, 0x00, 0xdc, 0x00, 0x00, 0x00, 0x48, 0x32, 0x00, 0x00,
  0x58, 0x32, 0x00, 0x00, 0x04, 0x3b, 0x00, 0x00, 0x03, 0x00, 0x00, 0x00,
  0x01, 0x00, 0x00, 0x00, 0x04, 0x00, 0x00, 0x00, 0x6a, 0xcd, 0xff, 0xff,
  0x0c, 0x00, 0x00, 0x00, 0x1c, 0x00, 0x00, 0x00, 0x38, 0x00, 0x00, 0x00,
  0x0f, 0x00, 0x00, 0x00, 0x73, 0x65, 0x72, 0x76, 0x69, 0x6e, 0x67, 0x5f,
  0x64, 0x65, 0x66, 0x61, 0x75, 0x6c, 0x74, 0x00, 0x01, 0x00, 0x00, 0x00,
  0x04, 0x00, 0x00, 0x00, 0x98, 0xff, 0xff, 0xff, 0x17, 0x00, 0x00, 0x00,
  0x04, 0x00, 0x00, 0x00, 0x05, 0x00, 0x00, 0x00, 0x64, 0x65, 0x6e, 0x73,
  0x65, 0x00, 0x00, 0x00, 0x01, 0x00, 0x00, 0x00, 0x04, 0x00, 0x00, 0x00,
  0x5e, 0xce, 0xff, 0xff, 0x04, 0x00, 0x00, 0x00, 0x0a, 0x00, 0x00, 0x00,
  0x6c, 0x73, 0x74, 0x6d, 0x5f, 0x69, 0x6e, 0x70, 0x75, 0x74, 0x00, 0x00,
  0x02, 0x00, 0x00, 0x00, 0x34, 0x00, 0x00, 0x00, 0x04, 0x00, 0x00, 0x00,
  0xdc, 0xff, 0xff, 0xff, 0x1a, 0x00, 0x00, 0x00, 0x04, 0x00, 0x00, 0x00,
  0x13, 0x00, 0x00, 0x00, 0x43, 0x4f, 0x4e, 0x56, 0x45, 0x52, 0x53, 0x49,
  0x4f, 0x4e, 0x5f, 0x4d, 0x45, 0x54, 0x41, 0x44, 0x41, 0x54, 0x41, 0x00,
  0x08, 0x00, 0x0c, 0x00, 0x08, 0x00, 0x04, 0x00, 0x08, 0x00, 0x00, 0x00,
  0x19, 0x00, 0x00, 0x00, 0x04, 0x00, 0x00, 0x00, 0x13, 0x00, 0x00, 0x00,
  0x6d, 0x69, 0x6e, 0x5f, 0x72, 0x75, 0x6e, 0x74, 0x69, 0x6d, 0x65, 0x5f,
  0x76, 0x65, 0x72, 0x73, 0x69, 0x6f, 0x6e, 0x00, 0x1b, 0x00, 0x00, 0x00,
  0x68, 0x31, 0x00, 0x00, 0x60, 0x31, 0x00, 0x00, 0x28, 0x31, 0x00, 0x00,
  0x0c, 0x31, 0x00, 0x00, 0x6c, 0x2f, 0x00, 0x00, 0xcc, 0x2d, 0x00, 0x00,
  0x2c, 0x2c, 0x00, 0x00, 0x8c, 0x2a, 0x00, 0x00, 0x54, 0x2a, 0x00, 0x00,
  0x1c, 0x2a, 0x00, 0x00, 0xe4, 0x29, 0x00, 0x00, 0xac, 0x29, 0x00, 0x00,
  0x9c, 0x1f, 0x00, 0x00, 0x8c, 0x15, 0x00, 0x00, 0x7c, 0x0b, 0x00, 0x00,
  0x6c, 0x01, 0x00, 0x00, 0x34, 0x01, 0x00, 0x00, 0x18, 0x01, 0x00, 0x00,
  0xfc, 0x00, 0x00, 0x00, 0xe0, 0x00, 0x00, 0x00, 0xa8, 0x00, 0x00, 0x00,
  0xa0, 0x00, 0x00, 0x00, 0x98, 0x00, 0x00, 0x00, 0x90, 0x00, 0x00, 0x00,
  0x88, 0x00, 0x00, 0x00, 0x68, 0x00, 0x00, 0x00, 0x04, 0x00, 0x00, 0x00,
  0x42, 0xcf, 0xff, 0xff, 0x04, 0x00, 0x00, 0x00, 0x54, 0x00, 0x00, 0x00,
  0x0c, 0x00, 0x00, 0x00, 0x08, 0x00, 0x0e, 0x00, 0x08, 0x00, 0x04, 0x00,
  0x08, 0x00, 0x00, 0x00, 0x10, 0x00, 0x00, 0x00, 0x24, 0x00, 0x00, 0x00,
  0x00, 0x00, 0x06, 0x00, 0x08, 0x00, 0x04, 0x00, 0x06, 0x00, 0x00, 0x00,
  0x04, 0x00, 0x00, 0x00, 0x00, 0x00, 0x00, 0x00, 0x00, 0x00, 0x0a, 0x00,
  0x10, 0x00, 0x0c, 0x00, 0x08, 0x00, 0x04, 0x00, 0x0a, 0x00, 0x00, 0x00,
  0x02, 0x00, 0x00, 0x00, 0x02, 0x00, 0x00, 0x00, 0x04, 0x00, 0x00, 0x00,
  0x06, 0x00, 0x00, 0x00, 0x32, 0x2e, 0x31, 0x35, 0x2e, 0x30, 0x00, 0x00,
  0xa2, 0xcf, 0xff, 0xff, 0x04, 0x00, 0x00, 0x00, 0x10, 0x00, 0x00, 0x00,
  0x31, 0x2e, 0x31, 0x34, 0x2e, 0x30, 0x00, 0x00, 0x00, 0x00, 0x00, 0x00,
  0x00, 0x00, 0x00, 0x00, 0xf4, 0xc6, 0xff, 0xff, 0xf8, 0xc6, 0xff, 0xff,
  0xfc, 0xc6, 0xff, 0xff, 0x00, 0xc7, 0xff, 0xff, 0xce, 0xcf, 0xff, 0xff,
  0x04, 0x00, 0x00, 0x00, 0x28, 0x00, 0x00, 0x00, 0x00, 0x00, 0x00, 0x00,
  0x00, 0x00, 0x00, 0x00, 0x00, 0x00, 0x00, 0x00, 0x00, 0x00, 0x00, 0x00,
  0x00, 0x00, 0x00, 0x00, 0x00, 0x00, 0x00, 0x00, 0x00, 0x00, 0x00, 0x00,
  0x00, 0x00, 0x00, 0x00, 0x00, 0x00, 0x00, 0x00, 0x00, 0x00, 0x00, 0x00,
  0x02, 0xd0, 0xff, 0xff, 0x04, 0x00, 0x00, 0x00, 0x0c, 0x00, 0x00, 0x00,
  0x01, 0x00, 0x00, 0x00, 0x01, 0x00, 0x00, 0x00, 0x01, 0x00, 0x00, 0x00,
  0x1a, 0xd0, 0xff, 0xff, 0x04, 0x00, 0x00, 0x00, 0x0c, 0x00, 0x00, 0x00,
  0x00, 0x00, 0x00, 0x00, 0x00, 0x00, 0x00, 0x00, 0x00, 0x00, 0x00, 0x00,
  0x32, 0xd0, 0xff, 0xff, 0x04, 0x00, 0x00, 0x00, 0x0c, 0x00, 0x00, 0x00,
  0x00, 0x00, 0x00, 0x00, 0xff, 0xff, 0xff, 0xff, 0x00, 0x00, 0x00, 0x00,
  0x4a, 0xd0, 0xff, 0xff, 0x04, 0x00, 0x00, 0x00, 0x28, 0x00, 0x00, 0x00,
  0x82, 0x95, 0x63, 0x3f, 0x52, 0x45, 0x4b, 0x3f, 0xce, 0xdd, 0x78, 0xbf,
  0x43, 0x1c, 0xc3, 0x3e, 0xb5, 0x3a, 0x35, 0x3f, 0x5e, 0x7d, 0x6d, 0x3f,
  0x5d, 0x22, 0xae, 0xbe, 0xb5, 0x9d, 0x6b, 0xbf, 0x26, 0x3d, 0x4c, 0xbe,
  0xd5, 0x02, 0x38, 0xbf, 0x7e, 0xd0, 0xff, 0xff, 0x04, 0x00, 0x00, 0x00,
  0x00, 0x0a, 0x00, 0x00, 0xd7, 0x7c, 0x17, 0x3e, 0xab, 0x4b, 0x4c, 0x3e,
  0xec, 0x48, 0xf3, 0x3d, 0x55, 0x88, 0xdd, 0x3c, 0xc0, 0x86, 0x14, 0x3e,
  0xb6, 0x3b, 0x46, 0xbe, 0x2a, 0xf6, 0xf1, 0x3d, 0x35, 0xd2, 0x3f, 0x3e,
  0xa0, 0xa1, 0x2b, 0xbe, 0x9c, 0x98, 0xb4, 0x3a, 0x6f, 0xdc, 0x45, 0x3e,
  0xa9, 0x9c, 0x43, 0x3e, 0x25, 0x82, 0x3a, 0x3e, 0x5c, 0x24, 0xaa, 0xbd,
  0x08, 0x43, 0x77, 0x3d, 0x9a, 0x9b, 0x12, 0xbd, 0x96, 0xfb, 0x71, 0xbd,
  0x74, 0x6c, 0xf0, 0xbd, 0x64, 0x05, 0xdb, 0x3d, 0xa3, 0x60, 0x15, 0xbc,
  0xb4, 0x0d, 0x59, 0x3e, 0x20, 0xf2, 0x05, 0x3d, 0x3a, 0x23, 0x3f, 0xbd,
  0x68, 0xed, 0x96, 0x3e, 0x03, 0x12, 0x06, 0xbe, 0x1f, 0x38, 0x52, 0xbe,
  0x41, 0xfb, 0x3a, 0xbd, 0xe1, 0xcb, 0x5f, 0x3e, 0x26, 0x95, 0x12, 0xbd,
  0xa1, 0x2e, 0x0a, 0x3d, 0x01, 0xaf, 0xf9, 0x3d, 0xf7, 0x6b, 0x2d, 0xbd,
  0x8d, 0x79, 0xe2, 0x3d, 0xc3, 0xd0, 0x42, 0xbe, 0x2e, 0x8a, 0xb4, 0xbb,
  0x81, 0x25, 0x5c, 0x3e, 0x3f, 0x17, 0xde, 0xbd, 0x35, 0x39, 0x2e, 0xbd,
  0x1f, 0x77, 0xb6, 0x3d, 0x5a, 0x39, 0x84, 0x3e, 0xca, 0x70, 0x1f, 0x3e,
  0xf9, 0x4a, 0x2e, 0xbd, 0xad, 0x80, 0x54, 0xbe, 0x44, 0x22, 0x7f, 0x3c,
  0xe3, 0x39, 0x2a, 0x3d, 0xbf, 0xbd, 0x32, 0x3e, 0xc1, 0x10, 0xdc, 0x3d,
  0x27, 0x0e, 0x50, 0x3e, 0x43, 0xe9, 0x95, 0x3d, 0xc4, 0xad, 0x24, 0x3e,
  0x2e, 0xcf, 0xb7, 0xbd, 0x45, 0x77, 0x23, 0xbd, 0x39, 0xd4, 0x28, 0x3e,
  0xca, 0x8d, 0x68, 0xbe, 0xb1, 0xc8, 0x70, 0x3e, 0x87, 0x53, 0x24, 0xbe,
  0x45, 0x70, 0xc0, 0x3d, 0x38, 0xa7, 0x03, 0xbe, 0xea, 0xe6, 0xf4, 0x3c,
  0xc3, 0x2d, 0x34, 0x3e, 0x8b, 0xf1, 0x53, 0xbe, 0xef, 0x1f, 0x36, 0x3e,
  0xde, 0x6d, 0xbc, 0x3d, 0x6a, 0x2f, 0x5b, 0xbe, 0x89, 0x62, 0xcb, 0x3d,
  0xc4, 0x05, 0x59, 0xbe, 0xd2, 0x68, 0x74, 0xbe, 0xe4, 0xe4, 0xdd, 0x3c,
  0xc3, 0x8d, 0x34, 0xbd, 0x4d, 0x0f, 0x1e, 0x3e, 0x45, 0x82, 0xf4, 0x3d,
  0x62, 0x3e, 0x82, 0x3e, 0xba, 0xae, 0x7f, 0xbe, 0x98, 0x4a, 0x93, 0xba,
  0x30, 0xf2, 0x7c, 0xbe, 0x5a, 0x5f, 0x8e, 0x3c, 0x1f, 0x9c, 0x87, 0xbe,
  0x6b, 0xfd, 0x21, 0xbe, 0xa5, 0xd0, 0xe9, 0xbd, 0x59, 0x22, 0x43, 0xbe,
  0x99, 0xfc, 0xe0, 0xbc, 0x52, 0x6a, 0x8a, 0xbe, 0x1e, 0x1d, 0x3c, 0xbe,
  0x8d, 0xc9, 0x09, 0xbe, 0xfa, 0x7d, 0x9f, 0x3d, 0x80, 0x90, 0xcc, 0x3d,
  0xca, 0x46, 0x8f, 0xbd, 0xff, 0xa1, 0x49, 0x3d, 0xe0, 0xa8, 0x23, 0xbe,
  0xa7, 0x60, 0xdc, 0xbd, 0xc6, 0x7c, 0xdd, 0xbc, 0xb8, 0x73, 0x58, 0x3d,
  0x75, 0x08, 0x9a, 0xbe, 0xda, 0xc7, 0x72, 0xbe, 0x27, 0xa9, 0x61, 0x3d,
  0xca, 0xfb, 0xc5, 0xbd, 0x9d, 0x13, 0x83, 0xbe, 0xaf, 0xd2, 0x2c, 0xbe,
  0xe5, 0x52, 0xb9, 0x3c, 0xa3, 0xcc, 0x94, 0xbd, 0x41, 0xff, 0x0e, 0xbe,
  0x3a, 0x2a, 0x0d, 0xbe, 0xf8, 0x2b, 0xa2, 0xbd, 0xb2, 0x64, 0x1e, 0x3b,
  0x3b, 0x2e, 0x93, 0xbe, 0x8d, 0xa8, 0x3b, 0xbe, 0x70, 0x4d, 0xc3, 0xbd,
  0x72, 0x61, 0x72, 0xbc, 0xf0, 0x75, 0x01, 0x3e, 0x8a, 0x7b, 0x28, 0x3e,
  0x2d, 0x69, 0x1f, 0x3e, 0x7d, 0xe4, 0xbe, 0x3d, 0x4d, 0xec, 0x09, 0xbe,
  0x5f, 0x54, 0x41, 0xbe, 0xfa, 0x88, 0xa9, 0xbc, 0x0d, 0xcf, 0xed, 0xbd,
  0xda, 0x0b, 0xe4, 0x3d, 0x11, 0x6c, 0x38, 0x3e, 0x77, 0x6e, 0x87, 0xbc,
  0x6f, 0x90, 0xa2, 0x3b, 0xe7, 0x36, 0x59, 0xbe, 0xc5, 0xef, 0x61, 0x3e,
  0x84, 0x8f, 0x23, 0xbe, 0x06, 0x9c, 0x37, 0xbe, 0x95, 0x02, 0x68, 0x3e,
  0x18, 0x28, 0xab, 0x3b, 0xe8, 0xe2, 0xa0, 0xbc, 0xd6, 0x93, 0x82, 0x3e,
  0xf7, 0xea, 0x2d, 0xbc, 0xf7, 0xf4, 0x0b, 0x3e, 0xb7, 0x10, 0x71, 0x3d,
  0xdd, 0x15, 0xc2, 0xbb, 0xf8, 0xe1, 0xb3, 0xbd, 0x38, 0xbf, 0x5e, 0xbe,
  0xa9, 0x02, 0x6f, 0xbe, 0x27, 0x62, 0xc0, 0x3d, 0xb7, 0xe5, 0xf6, 0x3d,
  0x98, 0x0d, 0x1b, 0xbe, 0xf2, 0x94, 0x44, 0x3d, 0xea, 0x48, 0x44, 0x3d,
  0x7a, 0x3a, 0xfe, 0xbd, 0xdf, 0x46, 0x8e, 0x3c, 0xc3, 0xec, 0x11, 0xbe,
  0x64, 0x3d, 0x74, 0x3e, 0xaf, 0x8b, 0xb3, 0xbd, 0x7f, 0xd7, 0x0a, 0x3d,
  0xf3, 0x4d, 0x26, 0xbe, 0x71, 0x07, 0x9f, 0xbb, 0xb3, 0xd5, 0xaa, 0x3d,
  0xdc, 0xb6, 0x3e, 0x3e, 0x96, 0xb0, 0xde, 0xbd, 0xa5, 0xdd, 0xbb, 0x3d,
  0x13, 0xf2, 0x5f, 0xbd, 0xad, 0x33, 0xb0, 0x3c, 0x33, 0x29, 0x26, 0xbe,
  0x3f, 0x1b, 0x4b, 0xbb, 0x04, 0x1e, 0x08, 0x3e, 0x1e, 0x06, 0xea, 0xbd,
  0xd2, 0xc7, 0xd7, 0x3d, 0xd9, 0xf1, 0xe8, 0xbd, 0x35, 0xe9, 0x16, 0xbe,
  0xaf, 0x43, 0x1c, 0xbe, 0x2f, 0xdc, 0x46, 0xbe, 0xbd, 0x13, 0x5f, 0xbe,
  0xe6, 0x73, 0xa6, 0xbe, 0x51, 0x1a, 0x0d, 0xbe, 0x74, 0x3a, 0x52, 0xbe,
  0x72, 0x94, 0x99, 0xbe, 0x4b, 0xea, 0xad, 0x3d, 0x7a, 0xdc, 0xec, 0xbd,
  0xb0, 0x05, 0x05, 0x3c, 0x15, 0xb6, 0x81, 0xbe, 0x77, 0xac, 0xc8, 0xbe,
  0x5d, 0x89, 0xb4, 0xbe, 0x5d, 0x2d, 0x9b, 0xbe, 0xe1, 0x0a, 0x23, 0xbe,
  0x10, 0x06, 0xf6, 0xbd, 0xe4, 0xd7, 0x80, 0x3d, 0x7a, 0x96, 0x9a, 0xbe,
  0x69, 0x6f, 0x06, 0xbe, 0x76, 0x80, 0x99, 0xbb, 0xda, 0x76, 0x11, 0xbd,
  0x73, 0x4d, 0xd8, 0xbc, 0x4b, 0xd2, 0x35, 0xbe, 0x76, 0xc0, 0x3e, 0xbe,
  0xa0, 0xf5, 0xa5, 0xbd, 0x55, 0x1c, 0x90, 0xbe, 0xa1, 0x5d, 0xf2, 0x3d,
  0xea, 0xf9, 0xee, 0x3c, 0xc7, 0x80, 0x3d, 0x3e, 0xe2, 0x2e, 0xbe, 0x3c,
  0x2d, 0xa1, 0x92, 0xbe, 0xa1, 0xca, 0x26, 0xbe, 0x6e, 0xf0, 0x7a, 0xbe,
  0xb2, 0x08, 0x35, 0xbe, 0xbd, 0xba, 0xe5, 0x3d, 0x85, 0x0f, 0xab, 0x3d,
  0x48, 0x85, 0x07, 0xbe, 0x86, 0xa1, 0x54, 0xbe, 0x10, 0x50, 0xf6, 0xbd,
  0x5c, 0x6c, 0x74, 0xbe, 0x65, 0x06, 0x4a, 0x3d, 0x48, 0x40, 0x75, 0x3e,
  0x41, 0x71, 0x3a, 0x3d, 0xe5, 0xff, 0x76, 0xbe, 0xa3, 0x24, 0x5e, 0xbd,
  0x22, 0xad, 0x2f, 0xbe, 0x8a, 0xb0, 0x94, 0x3c, 0x7d, 0x12, 0x95, 0xbd,
  0xfb, 0x51, 0x31, 0x3d, 0x81, 0x84, 0x7d, 0xbd, 0xfc, 0x26, 0xa0, 0xbe,
  0xf7, 0x65, 0x80, 0x3d, 0xd4, 0x02, 0x4a, 0xbd, 0xc9, 0xc3, 0xc0, 0xbd,
  0xbd, 0x4a, 0xbc, 0xbc, 0x89, 0x80, 0xb4, 0xbd, 0x63, 0x90, 0xed, 0xbd,
  0xd9, 0x9f, 0x6a, 0xbe, 0xae, 0xe2, 0x3d, 0xbe, 0xc2, 0xa7, 0x05, 0x3e,
  0x86, 0xfb, 0x6d, 0xbe, 0xdb, 0x41, 0x92, 0xbe, 0x8a, 0x9f, 0x9b, 0xbe,
  0x68, 0x5c, 0x99, 0xbd, 0x60, 0x69, 0x9c, 0x3d, 0xec, 0x85, 0x40, 0xbe,
  0xcf, 0x38, 0xcf, 0x3b, 0x6f, 0xcd, 0x95, 0xbd, 0x83, 0x06, 0x16, 0x3e,
  0x4a, 0x35, 0x76, 0xbb, 0xc7, 0xbf, 0x87, 0xbe, 0x02, 0xb0, 0xdc, 0x3d,
  0xb8, 0x48, 0x0a, 0x3e, 0x4e, 0x36, 0x22, 0xbe, 0x09, 0x3a, 0x0b, 0xbe,
  0x22, 0x7b, 0xc1, 0xbd, 0x7f, 0xb0, 0xd8, 0xbd, 0x2f, 0xbf, 0xa2, 0x3c,
  0x9f, 0x10, 0x04, 0xbe, 0x5c, 0x9a, 0x8f, 0xbe, 0x0e, 0x6b, 0xc0, 0x3d,
  0xab, 0xd0, 0xce, 0x3d, 0xf3, 0x5b, 0x3e, 0xbe, 0x78, 0x6c, 0x8f, 0xbe,
  0xef, 0xa4, 0x3c, 0xbe, 0xd2, 0x8f, 0x09, 0x3d, 0x22, 0xb0, 0x3b, 0xbe,
  0x71, 0x98, 0x20, 0x3d, 0x8e, 0x1f, 0x43, 0xbe, 0x99, 0xf0, 0x34, 0xbe,
  0x3b, 0xf8, 0x28, 0xbe, 0x4c, 0xa4, 0x2a, 0xbe, 0x22, 0x15, 0xfa, 0xbd,
  0x66, 0x38, 0xe3, 0x3c, 0x59, 0x40, 0x22, 0xbe, 0xc5, 0x06, 0x94, 0xbd,
  0x05, 0x92, 0x38, 0x3e, 0x35, 0x2d, 0x56, 0x3c, 0xba, 0x67, 0x58, 0x3d,
  0xe5, 0x98, 0xf6, 0x3c, 0x04, 0x31, 0xb2, 0xbd, 0xa2, 0xc6, 0x29, 0x3e,
  0xe9, 0x81, 0x0b, 0xbe, 0xff, 0x21, 0x4b, 0xbe, 0x8c, 0x76, 0x42, 0x3e,
  0xdf, 0x71, 0x6c, 0xbd, 0xef, 0xc3, 0x9d, 0x3d, 0x85, 0x6b, 0x04, 0x3e,
  0xef, 0x6b, 0x20, 0xbd, 0x9f, 0x3f, 0x16, 0x3d, 0x90, 0x5d, 0x27, 0xbe,
  0x1f, 0x69, 0x73, 0xbb, 0xac, 0x3e, 0x22, 0x3e, 0xd7, 0xac, 0xae, 0x3c,
  0x16, 0x63, 0x12, 0x3e, 0x5a, 0x6d, 0x2c, 0xbe, 0xc5, 0x13, 0x2d, 0xbe,
  0x70, 0x59, 0xa9, 0xbd, 0xd9, 0x5b, 0x98, 0x3d, 0x24, 0xcc, 0x1a, 0x3e,
  0x9c, 0x3a, 0xc2, 0xbd, 0x29, 0xd6, 0x61, 0x3e, 0x8d, 0x34, 0x4e, 0xbc,
  0x9d, 0x74, 0x64, 0xbd, 0x7f, 0xde, 0xb1, 0xbd, 0x7a, 0x7f, 0x42, 0x3e,
  0xb2, 0x47, 0x17, 0xbe, 0x80, 0x8b, 0xc2, 0x3d, 0x87, 0xa2, 0x87, 0xbe,
  0xe7, 0x55, 0x2a, 0x3e, 0x9b, 0x75, 0x85, 0xbd, 0x9f, 0x4b, 0x8b, 0x3d,
  0xd7, 0xfa, 0xef, 0x3d, 0xf1, 0x31, 0x8c, 0xbe, 0xb4, 0x6c, 0x2c, 0x3e,
  0x97, 0x31, 0xa1, 0xbe, 0xd0, 0x65, 0x30, 0xbe, 0x52, 0xeb, 0xd6, 0xbd,
  0xf5, 0xd6, 0x96, 0xbe, 0xe4, 0x1a, 0x4b, 0xbe, 0x34, 0x8b, 0x7a, 0xbd,
  0x99, 0x26, 0x42, 0x3a, 0x86, 0x7f, 0x9c, 0xbe, 0xc5, 0xbb, 0xb7, 0xbe,
  0xf3, 0x67, 0x87, 0xbd, 0xc2, 0xf8, 0xda, 0xbd, 0xae, 0x40, 0xaf, 0xbc,
  0xe2, 0x90, 0x8e, 0xbe, 0x16, 0x60, 0xc6, 0xbe, 0xb7, 0xff, 0xad, 0xbe,
  0xfb, 0xd4, 0xa5, 0xbe, 0x86, 0x86, 0x2c, 0xbe, 0x28, 0x70, 0x10, 0xbe,
  0x98, 0xb4, 0x8d, 0xbe, 0x08, 0x11, 0x2c, 0x3d, 0x4e, 0xa8, 0x1b, 0xbe,
  0xeb, 0x18, 0x51, 0xbe, 0xd6, 0x8e, 0x71, 0xbe, 0x6e, 0xaf, 0xa7, 0xbc,
  0xd8, 0x3c, 0x16, 0xbe, 0x07, 0x11, 0x8d, 0x3d, 0x43, 0x43, 0x26, 0xbd,
  0x6d, 0xfa, 0x70, 0xbe, 0x55, 0x95, 0x1f, 0x3e, 0x75, 0x1f, 0x24, 0x3e,
  0xee, 0x21, 0x1f, 0xbd, 0xea, 0x47, 0xbd, 0xbd, 0x6d, 0xb8, 0x68, 0xbe,
  0x75, 0x14, 0x9d, 0xbd, 0xc8, 0x0c, 0x10, 0x3d, 0xba, 0x94, 0xa5, 0xbe,
  0xcb, 0x85, 0xdc, 0x3d, 0xed, 0x1e, 0xbc, 0x3d, 0x1e, 0x75, 0x95, 0x3d,
  0x7e, 0x07, 0xe9, 0xbd, 0x8d, 0x14, 0xe2, 0x3c, 0xae, 0x8f, 0x25, 0x3e,
  0x67, 0xdc, 0x35, 0x3d, 0x6f, 0xa0, 0x11, 0xbe, 0xc2, 0x3b, 0x34, 0xbe,
  0x09, 0xd9, 0xb8, 0xbd, 0x24, 0x31, 0x16, 0x3e, 0x55, 0xbc, 0xfc, 0xbc,
  0x19, 0x59, 0x8e, 0x3d, 0x80, 0x3d, 0xb9, 0xbd, 0xd9, 0xf5, 0xf9, 0xbd,
  0x55, 0x63, 0x31, 0xbd, 0x73, 0xed, 0x15, 0x3e, 0x08, 0x26, 0x69, 0x3e,
  0x91, 0x81, 0x7a, 0x3e, 0xad, 0x9b, 0x85, 0x3e, 0x6c, 0x41, 0x16, 0xbc,
  0x18, 0x1a, 0x45, 0x3e, 0xdc, 0xe6, 0xec, 0x3b, 0x64, 0x3c, 0x4f, 0xbe,
  0x5f, 0x96, 0x11, 0xbd, 0xcb, 0xed, 0x7b, 0x3e, 0xf1, 0xaf, 0xdf, 0xbd,
  0x59, 0xfa, 0x85, 0x3d, 0x87, 0xdf, 0x45, 0xbe, 0x87, 0x21, 0x29, 0x3e,
  0xc5, 0x6c, 0x0b, 0x3e, 0x12, 0x21, 0x83, 0x3d, 0x49, 0x85, 0x93, 0xbd,
  0x20, 0x8e, 0x63, 0x3d, 0xdc, 0x20, 0x12, 0xbe, 0x03, 0xc4, 0x10, 0x3e,
  0xc4, 0x6f, 0x76, 0x3d, 0x65, 0xc6, 0x97, 0x3d, 0xc6, 0xad, 0x5c, 0x3a,
  0x0f, 0xb0, 0x24, 0xbe, 0x9c, 0xef, 0xe5, 0x3d, 0x69, 0x59, 0x4d, 0x3e,
  0x59, 0x5a, 0xca, 0x3d, 0x22, 0x45, 0x11, 0xbe, 0xd8, 0xb5, 0x9b, 0xbd,
  0x15, 0xe3, 0xc9, 0xbc, 0x6e, 0xc5, 0x33, 0x3e, 0x91, 0xe9, 0x9d, 0x3d,
  0xfd, 0xb3, 0x33, 0x3e, 0x5d, 0x2b, 0xd3, 0x3c, 0x06, 0xce, 0x96, 0xbd,
  0x85, 0x83, 0x86, 0x3e, 0xcf, 0x88, 0x83, 0xbc, 0x53, 0xf9, 0x10, 0xbd,
  0x18, 0xdd, 0x18, 0xbe, 0x32, 0xbd, 0xb3, 0xbd, 0xd2, 0x1e, 0x28, 0x3d,
  0x78, 0x4c, 0x47, 0x3e, 0x0e, 0xcb, 0x4a, 0x3a, 0x37, 0xf6, 0x7c, 0xbe,
  0x6f, 0xe2, 0x35, 0xbe, 0x79, 0xd9, 0x9c, 0xbd, 0x48, 0x7e, 0x2d, 0xbe,
  0x2d, 0x66, 0xf9, 0x3c, 0x90, 0x48, 0x7b, 0xbd, 0x18, 0x83, 0x77, 0x3c,
  0x4d, 0x78, 0x4b, 0xbe, 0x6d, 0x24, 0x08, 0xbd, 0xb8, 0xd1, 0xf4, 0xbd,
  0x90, 0x05, 0x12, 0xbe, 0x16, 0x54, 0x29, 0x3e, 0x5e, 0xfd, 0xa2, 0x3d,
  0x57, 0xa5, 0x33, 0xbe, 0xeb, 0x41, 0x9c, 0xbd, 0xd8, 0x47, 0x23, 0x3e,
  0x2b, 0x8c, 0x1f, 0xbe, 0x21, 0xe6, 0xa3, 0xbc, 0xa6, 0x9e, 0x87, 0xbe,
  0xd4, 0x68, 0x0e, 0xbe, 0x05, 0xc2, 0x07, 0xbe, 0x73, 0xce, 0x59, 0xbd,
  0xd0, 0xbe, 0xf9, 0xbd, 0x88, 0x15, 0xc1, 0x3c, 0x34, 0x01, 0xc3, 0x3d,
  0x17, 0x10, 0x98, 0xbd, 0x49, 0x2d, 0xa7, 0xbe, 0xf2, 0x75, 0x95, 0xba,
  0x51, 0xa4, 0x2f, 0xbe, 0x74, 0x71, 0xb4, 0xbe, 0x62, 0x4c, 0x65, 0xbe,
  0x76, 0xa9, 0x52, 0x3d, 0x5e, 0x1e, 0x4b, 0x3d, 0x89, 0x8c, 0x0e, 0x3e,
  0x78, 0x7e, 0x96, 0x3a, 0x9e, 0x92, 0x4b, 0xbe, 0x17, 0x5c, 0x93, 0xbe,
  0xf5, 0xa4, 0xa6, 0xbe, 0x53, 0x80, 0x9b, 0xbe, 0xcd, 0x55, 0x5e, 0xbe,
  0x99, 0x9d, 0x89, 0x3d, 0x02, 0x6d, 0x5d, 0xbd, 0x87, 0xc3, 0x0e, 0xbe,
  0xb4, 0xfd, 0x23, 0xbe, 0xdb, 0xff, 0xf3, 0xbd, 0x18, 0xcd, 0x35, 0xbe,
  0x1c, 0x3b, 0x87, 0xbe, 0x47, 0x4f, 0xa4, 0xbe, 0x55, 0xab, 0x92, 0x39,
  0x7f, 0x98, 0x56, 0xbe, 0x95, 0x3a, 0xda, 0xbc, 0xe6, 0xfc, 0x84, 0xbd,
  0xc1, 0x25, 0x21, 0xbe, 0xb0, 0x42, 0x66, 0xbe, 0x77, 0x0b, 0xdd, 0x3d,
  0xef, 0x54, 0x94, 0xbe, 0xf3, 0xa2, 0x3e, 0x3e, 0x47, 0x99, 0xbc, 0x3d,
  0xd1, 0x31, 0x4b, 0xbe, 0x4a, 0xbd, 0xf8, 0xbd, 0x0c, 0xa4, 0xaf, 0x3c,
  0x05, 0xd4, 0xe4, 0x3d, 0xec, 0x24, 0x22, 0x3e, 0xa1, 0xb1, 0xd6, 0x3a,
  0xad, 0x3d, 0x26, 0x3c, 0xa0, 0xa4, 0x49, 0x3d, 0x34, 0xbf, 0x12, 0xbe,
  0xc8, 0x03, 0x7a, 0x3d, 0xc1, 0x47, 0x75, 0x3e, 0xee, 0xf5, 0x2d, 0x3e,
  0x41, 0x10, 0x0a, 0xbe, 0x0d, 0x96, 0xe1, 0xbd, 0x3e, 0x2c, 0x0e, 0xbd,
  0x15, 0xbb, 0xe8, 0x3d, 0xa3, 0xbb, 0x93, 0x3d, 0x6c, 0xc3, 0x8c, 0xbe,
  0x92, 0x51, 0x2c, 0xbd, 0x7c, 0x43, 0x05, 0x3e, 0x91, 0xa5, 0x33, 0x3e,
  0x9d, 0x53, 0x00, 0x3e, 0x0b, 0x1b, 0xb5, 0x3c, 0x34, 0xae, 0x5f, 0x3d,
  0x10, 0x02, 0x90, 0xbd, 0x25, 0x11, 0xf5, 0x3d, 0xa9, 0x0e, 0x2b, 0xbd,
  0x8f, 0x7e, 0x52, 0xbc, 0xf9, 0x39, 0x96, 0xbe, 0xbb, 0x5f, 0xfc, 0xbc,
  0xa0, 0xe6, 0xe4, 0xbd, 0xf6, 0x9d, 0x1e, 0x3e, 0x69, 0x0c, 0x67, 0xbe,
  0x82, 0x60, 0x18, 0x3c, 0x73, 0xbe, 0x96, 0xbe, 0x32, 0x4d, 0x22, 0xbc,
  0x89, 0x4d, 0xa2, 0xbe, 0x09, 0x12, 0x8b, 0x3d, 0x6c, 0x7b, 0x22, 0x3d,
  0x1c, 0x9c, 0x03, 0xbe, 0x6f, 0x25, 0x3b, 0xbd, 0xad, 0xdd, 0x03, 0xbd,
  0x1d, 0xce, 0x1d, 0xbe, 0x6a, 0xf1, 0x98, 0xbe, 0xb0, 0x6a, 0x13, 0xbe,
  0xf5, 0x6f, 0x8c, 0xbc, 0xef, 0xa9, 0x05, 0xbe, 0x81, 0x68, 0xa4, 0xbe,
  0x44, 0x93, 0xc1, 0xbe, 0xb2, 0xf7, 0x05, 0xbe, 0x74, 0x5b, 0xfc, 0xbd,
  0x83, 0x1d, 0x82, 0xbe, 0xbf, 0x27, 0x1a, 0xbe, 0xbe, 0x5b, 0x6b, 0xbe,
  0xf9, 0x30, 0x0b, 0xbe, 0x52, 0xc1, 0x41, 0xbe, 0xd7, 0x99, 0x90, 0xbd,
  0x00, 0x6e, 0x3f, 0x3d, 0x9c, 0xdc, 0x43, 0xbe, 0x4d, 0x62, 0x9d, 0x3d,
  0x1c, 0xed, 0xcc, 0xbe, 0x7e, 0x90, 0xc9, 0xbe, 0x8f, 0x47, 0xde, 0xbd,
  0x9b, 0xb5, 0x89, 0xbd, 0x59, 0x19, 0x84, 0xbd, 0xaa, 0x05, 0xad, 0xbe,
  0x9a, 0x19, 0x82, 0xbe, 0x26, 0x64, 0x08, 0xbd, 0xc1, 0x39, 0xb3, 0xbd,
  0x19, 0x9d, 0xb7, 0xbd, 0xc9, 0x1c, 0x87, 0x3e, 0x44, 0x4c, 0xc3, 0xbd,
  0x67, 0xf5, 0x9a, 0x3d, 0x9b, 0xd5, 0x92, 0xbe, 0x11, 0xc8, 0x12, 0xbe,
  0xa1, 0x50, 0x8b, 0xbb, 0x79, 0x55, 0x83, 0xbe, 0xeb, 0x28, 0xac, 0x3b,
  0x73, 0xca, 0x04, 0xbe, 0xe5, 0xe1, 0x92, 0xbe, 0xb6, 0x9c, 0x3f, 0x3e,
  0x8e, 0xe0, 0x70, 0xbe, 0x75, 0xed, 0x75, 0xbe, 0x66, 0x18, 0x88, 0xbe,
  0x60, 0x8f, 0xca, 0xbd, 0x62, 0xab, 0xd4, 0x3c, 0xf9, 0xf0, 0xe7, 0xbd,
  0x19, 0x63, 0xb0, 0x3d, 0x47, 0xc9, 0x78, 0xbe, 0x33, 0xda, 0x25, 0xbc,
  0xac, 0xe3, 0x4e, 0xbe, 0xca, 0xed, 0x2c, 0x3e, 0x3a, 0x79, 0xe3, 0xbd,
  0x2d, 0x8c, 0x67, 0xbe, 0x34, 0x14, 0x25, 0xbe, 0xd5, 0x68, 0x62, 0xbe,
  0xf3, 0x6f, 0x99, 0x3d, 0xe7, 0x72, 0xa6, 0xbe, 0xb6, 0x0c, 0xac, 0xbe,
  0x6e, 0xea, 0x69, 0x3a, 0x49, 0x9f, 0xae, 0xbe, 0xf9, 0x49, 0x19, 0xbe,
  0x51, 0x03, 0xcb, 0xbc, 0xda, 0x24, 0x17, 0xbe, 0xde, 0x5f, 0x97, 0x3c,
  0x11, 0x2d, 0xab, 0xbe, 0x53, 0x16, 0xa0, 0xbe, 0x19, 0x08, 0x98, 0xbe,
  0xa3, 0xa7, 0x18, 0x3d, 0x31, 0x18, 0x64, 0xbe, 0x89, 0x9a, 0xa3, 0xbd,
  0xb4, 0x3f, 0x2a, 0xbe, 0x82, 0xe9, 0x48, 0xbe, 0xaf, 0x56, 0x4c, 0xbd,
  0x1f, 0x8b, 0x27, 0x3c, 0x07, 0xd8, 0x38, 0xbe, 0x1a, 0x55, 0x95, 0x3c,
  0x6a, 0x49, 0x73, 0xbe, 0xd7, 0x52, 0xd4, 0xbd, 0xc4, 0xf6, 0xeb, 0xbd,
  0xad, 0xee, 0x68, 0xbe, 0x46, 0x03, 0xcb, 0x3d, 0x4d, 0xc7, 0x45, 0x3d,
  0x32, 0x97, 0x93, 0xbe, 0xed, 0x79, 0x93, 0xbd, 0x13, 0xd8, 0xaf, 0x3d,
  0x26, 0x84, 0xae, 0x3d, 0x89, 0xd7, 0xea, 0x3c, 0x12, 0x85, 0x8f, 0x3e,
  0x49, 0x1e, 0x71, 0x3e, 0x07, 0xef, 0xb5, 0xbd, 0x52, 0xe3, 0x8f, 0xbd,
  0x7e, 0xfb, 0x47, 0x3d, 0x9e, 0x76, 0x9b, 0x3e, 0x42, 0x80, 0x7b, 0x3d,
  0x22, 0x33, 0x7b, 0x3e, 0x52, 0xb9, 0x45, 0x3e, 0x4b, 0x35, 0xeb, 0x3d,
  0xd1, 0x18, 0x54, 0x3c, 0xb5, 0x1e, 0x71, 0x3e, 0xbe, 0xcc, 0x54, 0x3e,
  0xb5, 0xdf, 0x09, 0xbe, 0x12, 0x06, 0x03, 0x3e, 0xed, 0x27, 0x3e, 0x3e,
  0x01, 0x72, 0xac, 0xbc, 0x72, 0x0b, 0xe3, 0x3d, 0x69, 0xc0, 0x18, 0x3d,
  0x2b, 0xbc, 0x64, 0x3e, 0x11, 0xdd, 0x33, 0x3e, 0x1e, 0xc4, 0xad, 0x3d,
  0x99, 0xf1, 0xe4, 0xbd, 0x6d, 0x9b, 0xda, 0x3c, 0xdc, 0x7f, 0xb1, 0x3d,
  0xa4, 0x11, 0xd2, 0xbc, 0x71, 0x2a, 0xff, 0x3d, 0x09, 0xff, 0x10, 0x3e,
  0x29, 0x8e, 0x61, 0x3e, 0xfb, 0x61, 0xbd, 0xbd, 0xec, 0x6b, 0x01, 0xbe,
  0x2d, 0xc0, 0x3e, 0xbe, 0x16, 0xbf, 0x23, 0x3d, 0x3a, 0xcc, 0x60, 0x3a,
  0x9c, 0x1a, 0x98, 0xbd, 0xaa, 0x4d, 0x87, 0x3d, 0x2e, 0x79, 0x68, 0x3e,
  0x01, 0xe0, 0x84, 0xbd, 0xba, 0xf1, 0x92, 0x3e, 0x39, 0x2a, 0xd6, 0xbd,
  0x99, 0x64, 0x34, 0x3e, 0x3a, 0xf3, 0x99, 0xbd, 0x01, 0xf5, 0xbe, 0xbd,
  0x21, 0x86, 0x57, 0x3e, 0x9e, 0xc0, 0x32, 0x3e, 0xd9, 0xe7, 0x0c, 0xbe,
  0xf4, 0x3c, 0x97, 0xbd, 0xff, 0x4b, 0x4a, 0xbe, 0x7c, 0x70, 0x95, 0x3d,
  0xa8, 0xd8, 0x4b, 0xbe, 0x38, 0x66, 0x6e, 0x3e, 0x02, 0x28, 0x08, 0xbe,
  0x4e, 0x5a, 0xa9, 0x3d, 0x3e, 0xc4, 0xc2, 0x3d, 0xe3, 0xa2, 0x41, 0x3e,
  0xee, 0x08, 0x17, 0x3e, 0xa7, 0x16, 0xae, 0xbd, 0x12, 0x91, 0x57, 0xbe,
  0x0c, 0x65, 0x42, 0x3e, 0x44, 0xe9, 0xdb, 0xbc, 0xbb, 0x9b, 0x80, 0x3e,
  0x21, 0x63, 0x32, 0xbe, 0xb0, 0x3e, 0xd8, 0x3c, 0x8a, 0xda, 0xff, 0xff,
  0x04, 0x00, 0x00, 0x00, 0x00, 0x0a, 0x00, 0x00, 0xd0, 0x7d, 0x8b, 0xbd,
  0xe6, 0xa5, 0x04, 0xbe, 0x98, 0x39, 0x8d, 0xbd, 0x0c, 0xd1, 0x93, 0xbd,
  0x24, 0x85, 0xc7, 0x3d, 0x2a, 0x50, 0xc4, 0xbd, 0x60, 0x94, 0xd2, 0xbc,
  0x54, 0x03, 0x61, 0xbd, 0xe1, 0x2e, 0x9c, 0x3d, 0xb7, 0x76, 0x39, 0xbe,
  0xb1, 0x53, 0x87, 0x3e, 0x8c, 0x7a, 0x95, 0x3e, 0x06, 0xc8, 0xf2, 0x3d,
  0xa7, 0x54, 0x4b, 0x3e, 0x7b, 0x7a, 0x17, 0xbe, 0xf5, 0x7b, 0x3e, 0x3e,
  0x47, 0x72, 0xe1, 0xbd, 0x56, 0x61, 0x09, 0x3e, 0x93, 0x4a, 0x82, 0x3e,
  0x78, 0xb1, 0x69, 0x3e, 0x70, 0x47, 0x9a, 0x3d, 0x53, 0xaa, 0x5e, 0x3e,
  0xa4, 0x9c, 0x9a, 0xbd, 0x90, 0xf7, 0xa3, 0x3d, 0x6b, 0x59, 0xe1, 0x3d,
  0x91, 0xe7, 0x02, 0xbe, 0x70, 0x51, 0x3b, 0x3e, 0x95, 0xce, 0xd1, 0x3d,
  0x56, 0xfd, 0x01, 0xbe, 0x37, 0x2f, 0x10, 0x3e, 0xe1, 0xd6, 0x02, 0xbe,
  0xe5, 0x14, 0xa3, 0x3d, 0xf0, 0x43, 0x3a, 0x3e, 0x57, 0xb8, 0x76, 0xbe,
  0x30, 0xf1, 0x3e, 0x3e, 0xf1, 0x91, 0x70, 0xbd, 0x26, 0xdd, 0xbf, 0xbd,
  0x6b, 0x8d, 0x93, 0xbd, 0x86, 0x1d, 0x81, 0xbe, 0x2d, 0x4f, 0x2c, 0x3e,
  0xed, 0xd0, 0xd8, 0x3d, 0x15, 0xf0, 0x06, 0xbe, 0xb4, 0x4c, 0xfa, 0x3b,
  0x28, 0xf5, 0x2f, 0xbe, 0x33, 0x2c, 0x07, 0xbb, 0x94, 0xad, 0x1b, 0x3e,
  0xd3, 0x74, 0x13, 0xbe, 0x65, 0x39, 0xc3, 0x3d, 0x38, 0xaf, 0xb5, 0x3c,
  0xe2, 0x3f, 0x83, 0xbd, 0x40, 0x1a, 0x0b, 0x3d, 0x16, 0xf8, 0x8e, 0x3c,
  0xe6, 0xb4, 0x4e, 0x3e, 0xf3, 0xdc, 0x77, 0xbe, 0xbd, 0x85, 0x14, 0x3e,
  0x6f, 0x61, 0xa0, 0x3d, 0xcb, 0xa1, 0xcf, 0xbd, 0x3f, 0x7a, 0x1a, 0xbe,
  0x4c, 0xde, 0x9f, 0x3e, 0xf6, 0x5e, 0x82, 0x3e, 0x9f, 0x54, 0x13, 0x3e,
  0xd4, 0xdc, 0x85, 0xbd, 0x22, 0xa7, 0x65, 0x3d, 0x68, 0x60, 0x0d, 0xbe,
  0x43, 0xc3, 0xba, 0x3d, 0x72, 0xab, 0x3e, 0xbe, 0xeb, 0x9e, 0x15, 0xbc,
  0x83, 0x11, 0x09, 0xbe, 0xf6, 0xad, 0xe0, 0x3d, 0x49, 0xf1, 0x4b, 0x3c,
  0x07, 0x15, 0x1d, 0xbd, 0x1f, 0xee, 0x17, 0xbe, 0x3d, 0x79, 0xe4, 0xbd,
  0x01, 0x7c, 0x09, 0xbe, 0x99, 0x52, 0xc0, 0x3d, 0x54, 0xea, 0xcb, 0xbd,
  0xdf, 0xce, 0x1a, 0xbe, 0x89, 0x07, 0xe8, 0x3d, 0x7a, 0x96, 0xe5, 0x3d,
  0x2f, 0xfe, 0xd0, 0x3c, 0x0d, 0x6d, 0x78, 0xbe, 0x33, 0xbe, 0x9d, 0xbe,
  0x7a, 0xf0, 0x58, 0x3b, 0x83, 0x85, 0xf9, 0xbd, 0xb6, 0x5b, 0xf2, 0xbd,
  0x5c, 0x01, 0x2e, 0x3e, 0x65, 0x87, 0x07, 0x3e, 0xf6, 0xb2, 0x8d, 0x3d,
  0xf6, 0x6c, 0x1a, 0x3e, 0x93, 0xf9, 0x21, 0xbe, 0xff, 0x25, 0x35, 0xbe,
  0xe8, 0x9a, 0x65, 0x3e, 0xb6, 0xe0, 0xe8, 0xbd, 0x08, 0xa9, 0x81, 0x3e,
  0x62, 0x86, 0x13, 0x3d, 0xc8, 0x9c, 0x03, 0xbe, 0x60, 0x8b, 0x19, 0xbd,
  0x02, 0x8f, 0xac, 0xbc, 0xac, 0xde, 0x8a, 0x3e, 0xc2, 0x39, 0xa3, 0xbd,
  0xc0, 0x68, 0xdb, 0xbd, 0xe9, 0xde, 0xe0, 0xbd, 0x82, 0x22, 0x3a, 0x3e,
  0x8f, 0x61, 0x40, 0x3e, 0x57, 0xf0, 0x8d, 0xbc, 0x58, 0xa0, 0xcd, 0x3d,
  0xd1, 0x84, 0x3f, 0x3e, 0x82, 0x91, 0x57, 0x3e, 0x5d, 0x19, 0x81, 0xbd,
  0xdd, 0xb2, 0x1a, 0xbe, 0x01, 0xe3, 0xe4, 0xbd, 0x47, 0x96, 0xe3, 0xbd,
  0xef, 0x17, 0x6c, 0x3d, 0x0c, 0x17, 0x39, 0x3e, 0x52, 0xd1, 0x77, 0x3e,
  0x9b, 0xdc, 0x3d, 0xbc, 0xec, 0x38, 0x36, 0xbe, 0x33, 0xe9, 0x62, 0x3d,
  0xf8, 0xe1, 0x00, 0x3e, 0x58, 0x04, 0xa0, 0x3d, 0x6d, 0x18, 0x61, 0x3e,
  0x78, 0xdb, 0x81, 0x3e, 0x59, 0xa9, 0x70, 0xbd, 0x8e, 0x34, 0xcb, 0x3d,
  0x56, 0x1d, 0x0e, 0xbd, 0xd2, 0x82, 0x33, 0xbb, 0xbb, 0xb7, 0xa3, 0xbd,
  0xc0, 0xb9, 0x41, 0x3e, 0xd2, 0x65, 0x69, 0x3d, 0x00, 0xd9, 0x04, 0x3e,
  0x3e, 0x2d, 0x59, 0xbe, 0x92, 0xa6, 0xd0, 0xbd, 0x0b, 0x54, 0x25, 0xbd,
  0xae, 0x7b, 0xc7, 0xbd, 0x6d, 0xf0, 0x93, 0xbd, 0xf4, 0x95, 0xba, 0xbd,
  0x5f, 0x4b, 0x7b, 0x3d, 0x2c, 0x0d, 0x4f, 0xbd, 0x51, 0xe9, 0x81, 0xb9,
  0xaa, 0x66, 0xc1, 0xbd, 0x51, 0xf9, 0xb4, 0x3d, 0x68, 0x03, 0x95, 0xbe,
  0x63, 0x58, 0x1a, 0x3e, 0xc9, 0x9f, 0x2d, 0xbe, 0x6a, 0x24, 0xd1, 0x3d,
  0xde, 0x44, 0xb3, 0x3b, 0x87, 0xc3, 0x14, 0xbe, 0x7c, 0x66, 0x18, 0xbe,
  0xef, 0xec, 0x4a, 0xbe, 0x24, 0x72, 0x1e, 0xbe, 0x40, 0x48, 0xb3, 0x3c,
  0xf3, 0x93, 0x3d, 0x3d, 0x3e, 0x2a, 0x5c, 0x3e, 0xc1, 0x76, 0x97, 0xbd,
  0xd2, 0x58, 0xef, 0x3d, 0x1b, 0x32, 0x17, 0x3d, 0xa2, 0x40, 0x4b, 0xbe,
  0x0f, 0xec, 0x99, 0xbc, 0x85, 0x6b, 0x51, 0xbe, 0x3e, 0x65, 0x16, 0x3e,
  0xdf, 0x22, 0x32, 0xbe, 0xda, 0x10, 0x10, 0x3e, 0xb7, 0xb1, 0xc3, 0x3d,
  0x9b, 0xe2, 0x03, 0x3e, 0x91, 0xb8, 0x05, 0x3d, 0x15, 0xbc, 0x2d, 0x3e,
  0x18, 0x28, 0x24, 0x3e, 0x3a, 0x0d, 0x75, 0xbe, 0xfc, 0x0a, 0x8e, 0x3e,
  0x55, 0x94, 0x5b, 0x3e, 0x4f, 0x27, 0x8e, 0xbd, 0x8f, 0xc6, 0xf3, 0xbc,
  0x92, 0xb0, 0xe8, 0x3d, 0x1e, 0x18, 0x0a, 0x3e, 0x5c, 0xb6, 0x7a, 0xbd,
  0xf2, 0x27, 0x04, 0xbe, 0x92, 0x49, 0xeb, 0xbc, 0x23, 0x6e, 0xdc, 0xbd,
  0x9c, 0x8a, 0xbd, 0x3d, 0x49, 0xce, 0x7a, 0x3e, 0xaf, 0x2b, 0xdf, 0x3d,
  0x15, 0x1f, 0x60, 0xbe, 0xe4, 0x4b, 0x84, 0xbc, 0x04, 0x00, 0x39, 0x3e,
  0x46, 0xea, 0xee, 0x3d, 0x54, 0xb3, 0x4f, 0xbd, 0x48, 0x48, 0xae, 0xbc,
  0x1e, 0x96, 0x37, 0x3e, 0x27, 0x77, 0x30, 0xbe, 0x32, 0x98, 0x92, 0xbe,
  0x62, 0x5e, 0x05, 0xbe, 0x8c, 0xff, 0x9a, 0x3d, 0x3e, 0xef, 0xef, 0xbc,
  0x1c, 0x90, 0xe0, 0x3d, 0x4e, 0x0e, 0xa4, 0xbd, 0x22, 0x71, 0xf1, 0xbc,
  0x05, 0x95, 0x66, 0x3e, 0xdb, 0xe4, 0x49, 0x3e, 0x01, 0x02, 0xa0, 0xbc,
  0x80, 0xfd, 0x29, 0x3e, 0xa0, 0xdb, 0xb1, 0x3d, 0x6e, 0x4b, 0xa8, 0x3d,
  0xf8, 0xb4, 0xe7, 0x3d, 0x17, 0x94, 0x00, 0x3e, 0x7b, 0x83, 0x96, 0x3e,
  0x4d, 0xe1, 0x09, 0xbe, 0xd5, 0x2a, 0xf3, 0x3d, 0x78, 0xd8, 0x87, 0x3e,
  0xc2, 0x47, 0x26, 0x3d, 0xd8, 0x9c, 0x49, 0x3e, 0x05, 0x0a, 0x18, 0xbd,
  0x01, 0x51, 0x1a, 0x3d, 0x34, 0xba, 0x3a, 0xbe, 0xe3, 0x38, 0xe1, 0xbd,
  0xe7, 0x9c, 0x26, 0xbe, 0xb8, 0xce, 0x30, 0xbe, 0x2f, 0x34, 0x24, 0x3e,
  0x77, 0xca, 0x02, 0xbe, 0x9d, 0x27, 0xb8, 0x3d, 0x35, 0x42, 0xbe, 0x3d,
  0x72, 0x2a, 0x55, 0x3d, 0x95, 0x40, 0xfd, 0xbb, 0x43, 0x6f, 0x97, 0x3d,
  0x09, 0x65, 0x7b, 0x3e, 0x58, 0xb8, 0xe2, 0x3d, 0xf0, 0x27, 0xe7, 0xbd,
  0xe1, 0xd1, 0xa9, 0x3c, 0xe9, 0x55, 0x6a, 0x3e, 0x10, 0x5b, 0x6f, 0x3e,
  0x00, 0x7f, 0xbd, 0x3d, 0x5e, 0x05, 0xd0, 0x3b, 0x64, 0xf0, 0x91, 0xbd,
  0x03, 0x9e, 0xd7, 0x3d, 0x1a, 0x74, 0x43, 0xbe, 0x5b, 0x81, 0x45, 0x3e,
  0x9f, 0x6c, 0x50, 0xbe, 0x52, 0xc0, 0x4e, 0x3c, 0x35, 0xae, 0xd7, 0xbd,
  0xbb, 0x3f, 0xff, 0xbd, 0xfb, 0x56, 0x12, 0xbd, 0xd0, 0x82, 0xa6, 0xbc,
  0xa6, 0x3e, 0xef, 0x3d, 0x0d, 0x7c, 0x7c, 0x3e, 0xbc, 0xc8, 0xc2, 0x3d,
  0x20, 0x8e, 0x15, 0x3e, 0x7c, 0xa5, 0xa5, 0xbd, 0x98, 0x85, 0x3e, 0x3e,
  0xc5, 0x3d, 0xaf, 0xbd, 0x19, 0x2b, 0x85, 0xbd, 0x8f, 0xfa, 0x2c, 0xbe,
  0x92, 0xac, 0x07, 0x3e, 0xa5, 0x25, 0x96, 0x3d, 0x06, 0xb4, 0xe9, 0xbd,
  0x13, 0xba, 0x2a, 0xbe, 0x00, 0x47, 0x95, 0x3e, 0xc6, 0xbd, 0x13, 0xbe,
  0xbe, 0x47, 0x07, 0xbe, 0x9e, 0x09, 0xf6, 0x3d, 0x56, 0x86, 0xa8, 0xbc,
  0xc2, 0xba, 0x73, 0x3e, 0xa4, 0x34, 0x1d, 0x3d, 0xf0, 0x91, 0x5a, 0xbe,
  0xf5, 0x9b, 0xb7, 0xbd, 0xeb, 0x5a, 0x4c, 0xbe, 0x78, 0x90, 0xf0, 0x3d,
  0xf9, 0x83, 0x2c, 0xbe, 0x65, 0x21, 0x6e, 0x3e, 0x27, 0x37, 0x10, 0x3e,
  0xdd, 0xda, 0x0b, 0x3e, 0xed, 0xc9, 0x9a, 0xbd, 0x9f, 0x3c, 0xcd, 0xbd,
  0xcf, 0xf0, 0x5b, 0xbd, 0x9d, 0x2b, 0x8e, 0x3d, 0xae, 0xac, 0x85, 0xbd,
  0x7d, 0x42, 0x23, 0xbe, 0xee, 0x77, 0x15, 0x3d, 0xef, 0x6a, 0xfd, 0x3d,
  0x46, 0xbd, 0xc8, 0x3d, 0x16, 0x68, 0xac, 0x3d, 0x1d, 0x15, 0x6f, 0x3d,
  0xf7, 0xf5, 0x35, 0xbe, 0x5c, 0xca, 0xbd, 0x3d, 0x44, 0x40, 0x43, 0x3e,
  0xe4, 0xfd, 0x78, 0x3d, 0xb5, 0x6e, 0x2c, 0x3c, 0x92, 0x57, 0xc5, 0xbd,
  0x33, 0x31, 0x8f, 0x3e, 0x03, 0xc4, 0x6c, 0x3e, 0x15, 0xce, 0xef, 0x3d,
  0xc5, 0x3c, 0x8e, 0x3d, 0x8a, 0x68, 0xde, 0x3d, 0x49, 0xd9, 0x83, 0xbb,
  0x1f, 0xe0, 0x93, 0x3c, 0x60, 0xf6, 0x88, 0x3c, 0x6c, 0x4a, 0x17, 0x3e,
  0x72, 0xb9, 0x2e, 0xbe, 0x1b, 0x71, 0x58, 0xbe, 0x3c, 0xd0, 0x3b, 0xbe,
  0xba, 0x0d, 0x80, 0xbd, 0x96, 0x10, 0x05, 0xbe, 0xc3, 0x33, 0x83, 0x3d,
  0xcb, 0xe4, 0xe0, 0x3d, 0x3b, 0x98, 0x36, 0x3e, 0x90, 0x48, 0x91, 0xbd,
  0xbc, 0x6d, 0x32, 0xbe, 0x79, 0x03, 0x1b, 0xbe, 0xaf, 0x04, 0x35, 0xbe,
  0xe0, 0x84, 0xa4, 0x3d, 0xcd, 0xe2, 0x06, 0xbd, 0x11, 0x93, 0xa8, 0x3d,
  0xc2, 0x6e, 0x50, 0xbb, 0x62, 0x3e, 0xab, 0x3d, 0x91, 0xb2, 0x97, 0x3d,
  0x5e, 0x36, 0x92, 0x3d, 0xd1, 0xa7, 0xaa, 0xbd, 0x5d, 0xfb, 0x24, 0xbc,
  0x60, 0x95, 0xd9, 0xbc, 0x31, 0x67, 0xca, 0x3d, 0xd4, 0xb9, 0x4a, 0x3d,
  0x3b, 0x75, 0x6e, 0x3e, 0x3a, 0xee, 0x89, 0x3d, 0xe2, 0x29, 0x4e, 0xbe,
  0x19, 0x4d, 0x75, 0x3e, 0x1e, 0xa7, 0x2f, 0x3e, 0x85, 0x2d, 0x96, 0x3c,
  0x22, 0x9e, 0xf0, 0x3d, 0x88, 0xb9, 0xf2, 0x3d, 0x04, 0x31, 0x1f, 0x3a,
  0x73, 0x46, 0xff, 0x3d, 0x5d, 0x6b, 0x3d, 0xbe, 0xc6, 0x29, 0x1c, 0xbe,
  0x1f, 0x6e, 0xc1, 0xbb, 0xb7, 0x3a, 0x4f, 0xbd, 0x46, 0xe3, 0x77, 0x3e,
  0x80, 0xe6, 0xf3, 0xbd, 0x83, 0xea, 0x2b, 0xbe, 0x0a, 0x93, 0x46, 0x3d,
  0x2f, 0xd6, 0x07, 0xbe, 0xe0, 0xb5, 0xe6, 0x3d, 0xd6, 0xeb, 0x2f, 0xbe,
  0x1e, 0xf1, 0x68, 0x3e, 0x01, 0x4d, 0x24, 0x3e, 0x52, 0x19, 0xf5, 0x3d,
  0x26, 0x9e, 0xf5, 0xbc, 0x59, 0x98, 0xfa, 0xbd, 0x75, 0x50, 0x26, 0xbe,
  0x2f, 0x4c, 0xfc, 0xbd, 0xe2, 0xc7, 0x2d, 0x3e, 0xce, 0xa6, 0x6a, 0x3e,
  0xa7, 0x83, 0x1d, 0xbc, 0xd9, 0x9f, 0xc5, 0xbd, 0x73, 0xdd, 0x0a, 0x3d,
  0xa4, 0x77, 0x01, 0x3e, 0x85, 0x89, 0xa2, 0xbd, 0x51, 0x27, 0x01, 0x3e,
  0x1f, 0x9d, 0x17, 0x3e, 0xc7, 0xe6, 0x1a, 0x3e, 0xe4, 0x75, 0xbe, 0x3d,
  0xf5, 0xac, 0x0f, 0x3e, 0x2d, 0xd6, 0x66, 0xbd, 0x32, 0xe9, 0x14, 0xbe,
  0x3f, 0x03, 0x67, 0xbe, 0x14, 0x2e, 0x48, 0xbd, 0x5d, 0xe3, 0xbb, 0xbd,
  0x17, 0xd6, 0x4e, 0x3d, 0xad, 0x4f, 0x7c, 0x3d, 0xf3, 0xb4, 0xaf, 0x3d,
  0xca, 0x08, 0xd9, 0xbd, 0x3d, 0xe8, 0x06, 0xbe, 0x48, 0xab, 0xaa, 0x3d,
  0x42, 0x0d, 0x1e, 0xbe, 0xcc, 0x28, 0x08, 0x3e, 0x2a, 0x79, 0xf7, 0xbd,
  0xb7, 0x39, 0x22, 0x3d, 0x16, 0x01, 0xe4, 0xbd, 0x87, 0x16, 0x4f, 0xbd,
  0xc3, 0xe8, 0x89, 0x3e, 0x6e, 0xff, 0x92, 0x3e, 0x6f, 0xb7, 0x1e, 0x3e,
  0xd4, 0x8e, 0xc8, 0xbc, 0x6a, 0xca, 0x93, 0xbd, 0x68, 0x39, 0x65, 0x3c,
  0xae, 0x5b, 0xc8, 0xbd, 0xe0, 0xc1, 0xe4, 0xbb, 0x99, 0x3b, 0x83, 0xbd,
  0xbc, 0xbd, 0x91, 0xbd, 0x4a, 0x5f, 0x4e, 0xbe, 0xb9, 0x8d, 0xce, 0xbd,
  0xcd, 0xdc, 0x1e, 0x3e, 0x18, 0x08, 0x9b, 0x3d, 0x76, 0xf8, 0x32, 0x3e,
  0xd2, 0x7e, 0x97, 0x3c, 0xb8, 0x17, 0x34, 0x3d, 0x0c, 0x23, 0x96, 0xbc,
  0x28, 0x59, 0x36, 0xbe, 0x48, 0x9f, 0x0a, 0xbe, 0x37, 0x89, 0x57, 0x3b,
  0xa9, 0x98, 0xf1, 0x3d, 0x5f, 0xef, 0xd4, 0x3c, 0x9a, 0x5d, 0xda, 0xbd,
  0xec, 0x75, 0xa7, 0x3c, 0xbe, 0xed, 0x95, 0x3e, 0xdc, 0x9c, 0x07, 0xbe,
  0xff, 0x13, 0xdd, 0xbc, 0xda, 0xab, 0x07, 0xbe, 0x81, 0xaf, 0x94, 0xbd,
  0xff, 0x26, 0x89, 0xbd, 0xd5, 0x34, 0x15, 0xbe, 0x56, 0x3b, 0x81, 0x3d,
  0xe7, 0x3a, 0x3c, 0x3e, 0xae, 0x5a, 0x4d, 0x3e, 0x51, 0x96, 0x64, 0x3e,
  0x2b, 0x48, 0x0f, 0xbd, 0xa9, 0x58, 0xe2, 0x3d, 0xa8, 0x3f, 0x42, 0x3e,
  0xbf, 0x9e, 0x25, 0xbe, 0xa5, 0xcc, 0xcd, 0x3d, 0x70, 0xfe, 0xeb, 0xbd,
  0xb7, 0x88, 0xef, 0xbd, 0x4d, 0x24, 0xad, 0xbd, 0x18, 0x93, 0x3c, 0xbd,
  0x37, 0x35, 0xd8, 0x3d, 0x96, 0xcb, 0x4f, 0x3e, 0xab, 0x27, 0xba, 0xbc,
  0x92, 0x54, 0xf3, 0x3c, 0x80, 0x08, 0x82, 0x3e, 0x73, 0x91, 0xab, 0x3d,
  0x48, 0xd0, 0xa5, 0xbd, 0x2c, 0xca, 0x0e, 0x3c, 0x6f, 0x6f, 0xfb, 0xbd,
  0x76, 0xfa, 0x35, 0x3e, 0x16, 0xdc, 0x4f, 0xbe, 0xb4, 0xe8, 0x1a, 0xbe,
  0xb5, 0x19, 0x85, 0x3e, 0x9b, 0x60, 0xf3, 0x3d, 0xb2, 0x17, 0x70, 0xbd,
  0x04, 0xcb, 0xfa, 0xbd, 0x1e, 0xc2, 0x5a, 0x3e, 0xd5, 0x57, 0xf1, 0x3c,
  0x25, 0x97, 0x2e, 0xbd, 0x18, 0xc2, 0x1e, 0x3c, 0x3c, 0x38, 0xa7, 0xbd,
  0xaf, 0x82, 0x59, 0xbe, 0xa7, 0xee, 0x3a, 0xbe, 0xeb, 0x1b, 0x2b, 0xbe,
  0x25, 0x65, 0x75, 0xbe, 0xaa, 0xd2, 0x05, 0xbe, 0x06, 0x74, 0x72, 0xbd,
  0x35, 0xb9, 0x6e, 0x3e, 0x70, 0x05, 0x7a, 0x3c, 0xa2, 0xfd, 0x83, 0xbe,
  0x0c, 0x6e, 0xba, 0x3d, 0x7d, 0x15, 0x3e, 0x3d, 0xf6, 0xf5, 0xa9, 0xbd,
  0xb2, 0x93, 0x95, 0x3c, 0x8d, 0x6a, 0x36, 0x3e, 0x6e, 0x5b, 0xdc, 0xbd,
  0x69, 0x04, 0x47, 0x3d, 0xb8, 0x9c, 0x87, 0xbe, 0xb6, 0x8a, 0x86, 0xbe,
  0xa5, 0x92, 0x85, 0xbb, 0x6e, 0xf4, 0xdd, 0x3d, 0x6a, 0xb5, 0x47, 0xbe,
  0x92, 0x00, 0x07, 0x3e, 0x29, 0x59, 0x04, 0xbe, 0x96, 0xaf, 0x3a, 0xbe,
  0x3d, 0x0f, 0xab, 0xbd, 0x69, 0x6b, 0x06, 0x3e, 0xe2, 0xe5, 0xee, 0x3d,
  0xf4, 0x20, 0xb1, 0x3b, 0x51, 0x76, 0xd1, 0x3d, 0x3b, 0xd5, 0x17, 0xbd,
  0x05, 0x4c, 0x01, 0x3e, 0x1d, 0x3b, 0x5b, 0x3d, 0x7e, 0x6a, 0x0c, 0xbe,
  0x62, 0x2f, 0x35, 0x3e, 0x32, 0x3c, 0x19, 0x3d, 0xef, 0x86, 0x12, 0x3e,
  0x4c, 0x4f, 0x5a, 0xbd, 0x0c, 0xad, 0x8f, 0xbd, 0x0a, 0xc4, 0x63, 0x3e,
  0x01, 0x8b, 0x13, 0x3e, 0x26, 0xa6, 0xce, 0x3d, 0xfe, 0xed, 0x4f, 0xbe,
  0xc0, 0xfc, 0x64, 0xbd, 0x29, 0x26, 0x01, 0x3e, 0xf2, 0x10, 0x56, 0xbe,
  0xea, 0x64, 0xc9, 0xbd, 0x5f, 0x8e, 0x82, 0x3e, 0x47, 0x5a, 0x28, 0xbe,
  0x91, 0x14, 0x50, 0x3e, 0x44, 0xf9, 0xab, 0x3d, 0xca, 0x5a, 0x1e, 0xbe,
  0xe4, 0x68, 0xe6, 0xbb, 0xeb, 0x33, 0x0b, 0xbe, 0xb4, 0xea, 0x33, 0x3e,
  0x7c, 0x2c, 0x6f, 0x3e, 0x07, 0x8b, 0xc5, 0xbd, 0x03, 0xdb, 0x87, 0x3e,
  0x32, 0x6b, 0x0d, 0xbd, 0xe4, 0x08, 0x8d, 0xbc, 0x57, 0x9b, 0xbc, 0xbd,
  0xbd, 0x5a, 0x6e, 0x3d, 0x08, 0x0a, 0xe0, 0x3d, 0xfa, 0x1a, 0x81, 0xbd,
  0x2b, 0x67, 0xd7, 0xbd, 0xf8, 0x3d, 0x6a, 0x3e, 0xb8, 0x73, 0x1b, 0x3e,
  0x29, 0x4d, 0x17, 0x3e, 0x9e, 0x3f, 0xc3, 0x3d, 0x6e, 0xb0, 0x38, 0x3e,
  0x78, 0x84, 0x9a, 0x3c, 0xaa, 0x88, 0x91, 0x3e, 0x3b, 0x19, 0xed, 0xbd,
  0x8d, 0xc8, 0xef, 0xbc, 0xc4, 0xcb, 0xf1, 0x3d, 0xc1, 0x08, 0x49, 0xbe,
  0x66, 0x1b, 0x0b, 0xbe, 0x40, 0xa4, 0x02, 0x3e, 0x32, 0xb1, 0x41, 0x3d,
  0x19, 0x30, 0x8e, 0xbd, 0x92, 0xaf, 0x13, 0xbe, 0x30, 0xbc, 0x09, 0x3e,
  0xd9, 0x74, 0x3e, 0x3d, 0xb1, 0xa2, 0xbc, 0xba, 0xbe, 0xab, 0x4a, 0xbe,
  0xc3, 0x04, 0x10, 0xbd, 0x3d, 0x77, 0x11, 0x3d, 0x54, 0x7c, 0x4c, 0xbe,
  0xf3, 0x63, 0x5d, 0x3c, 0x82, 0xcd, 0xf4, 0xbd, 0x38, 0x27, 0xb7, 0xbd,
  0xd4, 0x34, 0x50, 0xbe, 0x9b, 0x57, 0x0c, 0xbe, 0xb6, 0x4a, 0x5f, 0xbe,
  0x4a, 0x36, 0x8f, 0xbe, 0xa1, 0x15, 0x50, 0x3e, 0x1a, 0xee, 0xdf, 0xbd,
  0x57, 0x3c, 0x9a, 0xbd, 0xf5, 0x4d, 0x2f, 0xbe, 0x16, 0x15, 0xa6, 0x3d,
  0x2f, 0x94, 0xe5, 0xbd, 0xda, 0x89, 0x0e, 0x3e, 0x13, 0xe5, 0xaa, 0xbc,
  0xfe, 0x54, 0xed, 0xbd, 0x14, 0x84, 0xb2, 0x3d, 0xf3, 0x37, 0x01, 0x3e,
  0xfb, 0x30, 0xa7, 0x3c, 0x4e, 0x1f, 0x9d, 0xbd, 0x2b, 0x2f, 0x68, 0xbd,
  0x7c, 0xc0, 0x1f, 0x3e, 0x0b, 0x40, 0x0c, 0x3e, 0x1f, 0x91, 0x8a, 0x3d,
  0x5d, 0x73, 0x2c, 0xbe, 0x2e, 0xbd, 0xcd, 0x3d, 0xad, 0x42, 0x37, 0x3b,
  0x0f, 0xbf, 0x9d, 0x3d, 0x66, 0x35, 0x86, 0xbe, 0x7d, 0xd9, 0x65, 0xbe,
  0x1e, 0xfc, 0x2c, 0xbe, 0x26, 0x05, 0xfb, 0xbb, 0x05, 0x52, 0x55, 0x3c,
  0x3d, 0xe8, 0x15, 0xbe, 0x38, 0x6e, 0x2f, 0x3e, 0x75, 0x52, 0xb2, 0xbd,
  0xe1, 0xc3, 0x34, 0x3c, 0x17, 0x27, 0x7d, 0xbe, 0x87, 0x34, 0xc5, 0xbc,
  0x34, 0x5f, 0x0c, 0xbd, 0x8e, 0x56, 0x22, 0x3e, 0xe5, 0x28, 0x2d, 0xbe,
  0xb5, 0x83, 0x3a, 0xbd, 0x87, 0x7c, 0x17, 0x3d, 0xe2, 0xac, 0x8f, 0x3d,
  0xf2, 0x78, 0x20, 0xbe, 0xbd, 0xf6, 0x08, 0xbd, 0xd8, 0xc0, 0x22, 0x3e,
  0x70, 0xaa, 0xc3, 0xbd, 0x8a, 0xc0, 0x90, 0xbc, 0xb6, 0x45, 0x2a, 0xbd,
  0x46, 0xc6, 0x01, 0xbe, 0x4f, 0xc5, 0x04, 0xbb, 0x57, 0x9f, 0x76, 0x3e,
  0xc5, 0xfe, 0x6b, 0x3e, 0xb3, 0xb1, 0x80, 0xbe, 0xf8, 0xd0, 0x7c, 0x3d,
  0x75, 0x9a, 0x68, 0xbe, 0xdb, 0x9a, 0x75, 0xbe, 0x15, 0x70, 0x6b, 0x3b,
  0x2f, 0x6e, 0x16, 0x3e, 0xc4, 0x82, 0x20, 0xbe, 0xd7, 0x1e, 0x71, 0x3d,
  0x18, 0xbe, 0x10, 0xbe, 0x2b, 0x8a, 0x00, 0x3e, 0xe0, 0x17, 0x71, 0xbe,
  0xcc, 0x9d, 0x1c, 0xbe, 0x2e, 0xa8, 0xd9, 0x3d, 0x29, 0xdc, 0x56, 0xbe,
  0x01, 0xa1, 0x10, 0x3e, 0xe8, 0x12, 0xea, 0x3d, 0x6b, 0xd1, 0x01, 0x3e,
  0x51, 0x4d, 0x50, 0xbe, 0x56, 0x0f, 0x2b, 0x3e, 0x3b, 0xe7, 0x80, 0xbe,
  0xd4, 0xbc, 0xfd, 0x3d, 0x4d, 0x6a, 0x2c, 0xbd, 0x16, 0x34, 0x1c, 0x3c,
  0x21, 0x6f, 0x81, 0xbd, 0x1d, 0x8e, 0x80, 0x3d, 0xfa, 0xae, 0x07, 0xbe,
  0xd8, 0x9b, 0x32, 0xbe, 0xb5, 0x42, 0x94, 0xbd, 0x89, 0x82, 0x05, 0x3e,
  0xcb, 0xcd, 0x44, 0x3d, 0x90, 0x0c, 0x16, 0x3e, 0xc5, 0x90, 0xb4, 0xbd,
  0x39, 0xda, 0x41, 0xbd, 0x5e, 0x1f, 0xbe, 0x3d, 0xd6, 0x7b, 0x14, 0xbd,
  0x7f, 0xa6, 0x39, 0x3e, 0x55, 0xfc, 0x4a, 0x3e, 0x57, 0x8b, 0x95, 0xbd,
  0xd4, 0x19, 0x0a, 0x3d, 0xc6, 0x15, 0x8e, 0x3e, 0x6d, 0xa0, 0xdc, 0xbd,
  0x31, 0xba, 0xb7, 0xbd, 0x38, 0x77, 0x5b, 0x3e, 0x89, 0x16, 0x87, 0x3d,
  0x18, 0xd7, 0x7f, 0x3d, 0x09, 0xee, 0x3d, 0xbe, 0xa5, 0xb3, 0xea, 0xbd,
  0x91, 0x34, 0x77, 0x3e, 0x50, 0xe1, 0x61, 0xbe, 0xe6, 0x25, 0x85, 0xbe,
  0x95, 0x7f, 0x63, 0xbe, 0x3c, 0x1e, 0x3d, 0x3d, 0xb0, 0x94, 0x54, 0xbd,
  0x0d, 0xdf, 0x26, 0x3d, 0x73, 0x83, 0xd2, 0xbd, 0xb6, 0xcc, 0x92, 0x3d,
  0x96, 0xe4, 0xff, 0xff, 0x04, 0x00, 0x00, 0x00, 0x00, 0x0a, 0x00, 0x00,
  0x6f, 0x51, 0xd5, 0x3b, 0xa1, 0xf3, 0x8f, 0x3d, 0x62, 0x04, 0x37, 0xbe,
  0x74, 0xd3, 0x79, 0xbc, 0x40, 0x1c, 0x3e, 0x3e, 0x8b, 0x81, 0x96, 0x3d,
  0x4d, 0xa2, 0x9c, 0x3e, 0x6b, 0x8e, 0x35, 0x3e, 0x9c, 0x83, 0x01, 0xbe,
  0x0b, 0x21, 0x60, 0x3d, 0x6e, 0xda, 0x87, 0xbe, 0x16, 0xbc, 0x47, 0xbe,
  0x31, 0x14, 0xee, 0xbd, 0x4b, 0x14, 0x50, 0x3e, 0x63, 0x17, 0xc4, 0xbc,
  0x90, 0x63, 0xea, 0xbd, 0x4c, 0x8d, 0x04, 0xbd, 0xf0, 0xf8, 0x79, 0xbe,
  0x53, 0x07, 0x4c, 0xbe, 0xd1, 0xdb, 0x32, 0x3e, 0x95, 0xbb, 0x63, 0xbc,
  0x83, 0x5b, 0xfb, 0x3d, 0x08, 0xe3, 0x91, 0xbd, 0x3b, 0xd0, 0x93, 0x3e,
  0xfe, 0xd7, 0xd0, 0x3c, 0x9e, 0x38, 0x11, 0x3e, 0xde, 0x4d, 0x5e, 0xbc,
  0x5e, 0x4c, 0x18, 0x3e, 0x30, 0x7e, 0xe5, 0x3d, 0x74, 0x5a, 0xe1, 0xbd,
  0x38, 0x9a, 0x31, 0x3e, 0x8d, 0x23, 0x27, 0x3e, 0xb9, 0x03, 0x7d, 0xbe,
  0x98, 0x05, 0x39, 0xbe, 0xa8, 0xac, 0x31, 0x3e, 0x6a, 0xce, 0xbf, 0x3d,
  0xa8, 0x70, 0x93, 0xbd, 0xd6, 0xce, 0x8b, 0xbd, 0xac, 0xa6, 0xd6, 0xbd,
  0xda, 0x5e, 0x98, 0x3e, 0xd3, 0x07, 0x15, 0xbd, 0x94, 0x98, 0xf9, 0xbd,
  0xab, 0x0f, 0xe2, 0xbc, 0x77, 0xb9, 0xb4, 0xbd, 0x1c, 0x78, 0x57, 0xbd,
  0xde, 0x83, 0x35, 0x3e, 0x39, 0xc4, 0xf2, 0xbc, 0xf8, 0xda, 0xe8, 0xbd,
  0x00, 0x16, 0x3e, 0xbe, 0x12, 0xc8, 0x26, 0xbe, 0x07, 0xff, 0xda, 0xbc,
  0x07, 0x9b, 0xb0, 0xbd, 0xf1, 0x2f, 0x9f, 0x3d, 0x35, 0x8e, 0xca, 0x3b,
  0xb6, 0xfc, 0x31, 0x3e, 0x0c, 0x41, 0x63, 0x3d, 0xf8, 0x4e, 0x54, 0x3d,
  0xd7, 0xfa, 0x00, 0xbe, 0x10, 0xfc, 0x05, 0xbe, 0x0c, 0x8d, 0x17, 0xbe,
  0x19, 0x54, 0xca, 0x3d, 0x39, 0xd0, 0x26, 0x3e, 0x2e, 0x8f, 0x46, 0x3e,
  0xd9, 0xda, 0x55, 0xbc, 0xa2, 0xf5, 0x42, 0xbd, 0x29, 0x0a, 0x3f, 0x3c,
  0x06, 0xd3, 0x21, 0xbe, 0x89, 0x80, 0xdb, 0x3c, 0x4f, 0x47, 0x59, 0xbe,
  0x2e, 0xfc, 0x82, 0x3b, 0x84, 0x78, 0x5d, 0x3d, 0xb9, 0xad, 0x17, 0x3e,
  0x9f, 0x42, 0x1c, 0xbe, 0xb2, 0x24, 0x56, 0x3d, 0x84, 0xd7, 0xa1, 0x3d,
  0x09, 0xe6, 0x84, 0xbe, 0xd5, 0xf0, 0xea, 0x3d, 0x10, 0x8d, 0x80, 0xbe,
  0xe8, 0xbd, 0xe3, 0xbd, 0x35, 0x0f, 0x9d, 0xbd, 0x71, 0xc4, 0x96, 0x3d,
  0x4c, 0x04, 0x45, 0xbe, 0x49, 0x04, 0x65, 0xbb, 0xc2, 0x0f, 0x16, 0xbe,
  0x1e, 0xed, 0x22, 0xbe, 0x84, 0xd7, 0x9e, 0xbd, 0xa9, 0xc1, 0x90, 0xbe,
  0x22, 0x71, 0x1c, 0xbe, 0x25, 0x3c, 0x9d, 0x3a, 0x8e, 0x8b, 0x01, 0x3e,
  0x6f, 0x29, 0x8b, 0xbd, 0xf8, 0x51, 0x64, 0xbe, 0xb6, 0x18, 0xb0, 0xbd,
  0x8b, 0xb1, 0x19, 0xbe, 0xf7, 0xfa, 0x89, 0x3d, 0xbc, 0x4e, 0x63, 0x3e,
  0x36, 0xcb, 0x88, 0xbe, 0xa4, 0x96, 0x0e, 0x3e, 0x32, 0x28, 0x0d, 0x3e,
  0x0f, 0x65, 0x31, 0xbe, 0x49, 0xdd, 0x74, 0xbe, 0xa3, 0x5b, 0xd7, 0xbc,
  0x35, 0xd7, 0x1d, 0x3e, 0xb8, 0x24, 0x8b, 0x3e, 0xb8, 0x69, 0x99, 0xbe,
  0x04, 0xa5, 0x36, 0xbe, 0xd2, 0x46, 0x68, 0xbe, 0xbf, 0x46, 0x89, 0xbe,
  0x4f, 0xe3, 0x2c, 0x3d, 0x97, 0x7d, 0xa2, 0xbc, 0xa8, 0xbc, 0x11, 0x3e,
  0x24, 0x23, 0xb6, 0xbd, 0x89, 0x80, 0x4d, 0xbd, 0xa5, 0xab, 0x13, 0x3e,
  0x2d, 0x01, 0xa7, 0xbd, 0xba, 0xaf, 0x2b, 0x3c, 0x10, 0x50, 0x46, 0x3e,
  0x7e, 0x63, 0x2b, 0x3e, 0xb1, 0xdc, 0xf2, 0xbd, 0x11, 0xc3, 0x3e, 0x3e,
  0xa4, 0x03, 0x9a, 0xbe, 0xae, 0xbe, 0x4f, 0xbe, 0x88, 0xf9, 0x58, 0xbe,
  0x93, 0xa1, 0x95, 0x3e, 0x90, 0x54, 0x33, 0x3d, 0x1e, 0xc3, 0xe3, 0x3d,
  0x9c, 0x3c, 0x0e, 0x3e, 0x4f, 0x8c, 0xa2, 0x3c, 0x26, 0x38, 0x37, 0x3e,
  0x59, 0x25, 0x90, 0xbe, 0xea, 0x5f, 0x4f, 0xbe, 0x13, 0x54, 0x67, 0x3d,
  0xa5, 0xdd, 0xe7, 0xbd, 0x56, 0x1e, 0xbd, 0x3d, 0xc2, 0x01, 0xf8, 0x3c,
  0x44, 0xbd, 0x98, 0xbd, 0xc9, 0xd6, 0xb2, 0x3d, 0x51, 0xe0, 0x18, 0x3e,
  0x16, 0x3d, 0x91, 0xbe, 0x02, 0xf6, 0x4c, 0xbd, 0xbd, 0xe7, 0xef, 0xbd,
  0xa3, 0x21, 0x01, 0x3e, 0xe8, 0xb3, 0x4b, 0x3e, 0x1a, 0xdd, 0xc8, 0x3d,
  0x78, 0x67, 0x0b, 0xbe, 0xa8, 0xb4, 0x14, 0xbb, 0xf0, 0x17, 0xb1, 0xbe,
  0x33, 0x54, 0x2c, 0x3e, 0xb5, 0xa3, 0x32, 0xbe, 0xaa, 0x38, 0x41, 0x3e,
  0xef, 0x11, 0x2d, 0x3d, 0xe8, 0xf8, 0x50, 0x3e, 0xe5, 0x9a, 0xcd, 0x3a,
  0xbe, 0x33, 0x46, 0xbe, 0x28, 0x92, 0x63, 0xbe, 0xba, 0x77, 0x89, 0xbe,
  0x6b, 0x9b, 0x9a, 0xbd, 0x34, 0xe1, 0x16, 0x3e, 0xd6, 0x04, 0x35, 0xbe,
  0x98, 0x8b, 0xbe, 0x3c, 0xe4, 0x3d, 0x05, 0xbe, 0x6a, 0x8a, 0x43, 0xbe,
  0x4e, 0x1b, 0x50, 0x3d, 0x91, 0x3d, 0x8c, 0xbe, 0x92, 0x91, 0xa3, 0xbe,
  0xa3, 0x16, 0xaf, 0xbd, 0xec, 0x4b, 0x98, 0x3d, 0xbb, 0x8e, 0x10, 0xbd,
  0x36, 0x26, 0xb0, 0x3d, 0x94, 0xca, 0xb0, 0x3d, 0xa1, 0xaa, 0x02, 0x3d,
  0x7c, 0x88, 0x18, 0x3e, 0xcc, 0xc1, 0x74, 0xbd, 0xd1, 0x0d, 0x9b, 0xbe,
  0xf8, 0x84, 0xea, 0x3d, 0x96, 0xd3, 0x04, 0x3e, 0x24, 0x1f, 0x45, 0xbd,
  0xec, 0x2e, 0x74, 0xbe, 0xf1, 0xe2, 0x83, 0xbe, 0xe0, 0xd7, 0x3f, 0xbe,
  0xbc, 0x34, 0x22, 0x3e, 0x0f, 0xd0, 0x3c, 0x3d, 0xb9, 0xaa, 0xca, 0xbc,
  0x88, 0xec, 0x42, 0xbd, 0x2c, 0xa2, 0xbe, 0x3d, 0x56, 0xd9, 0x2f, 0xbc,
  0xcd, 0xf8, 0x9a, 0x3d, 0x3e, 0x9d, 0xe6, 0xbd, 0x04, 0xce, 0xa7, 0xbc,
  0xf9, 0x96, 0x3c, 0xbe, 0x53, 0x64, 0xdf, 0xbd, 0x3c, 0x0f, 0x0a, 0xbe,
  0x75, 0x10, 0xa7, 0xbe, 0x00, 0x67, 0xee, 0xbb, 0x72, 0x75, 0xaf, 0xbd,
  0xba, 0x96, 0xa4, 0x3d, 0xa0, 0x4e, 0xed, 0xbd, 0x0c, 0x0b, 0x05, 0xbe,
  0x7a, 0x0c, 0xf3, 0xbb, 0x5b, 0x34, 0x27, 0x3e, 0x3f, 0x45, 0x45, 0xbe,
  0x63, 0x57, 0x70, 0xbe, 0xd8, 0x43, 0x6d, 0xbe, 0x63, 0x99, 0xdf, 0xbd,
  0x85, 0xf2, 0x97, 0xbe, 0xb6, 0x39, 0xf1, 0x3d, 0xd1, 0x29, 0x6d, 0xbe,
  0x60, 0x05, 0x21, 0xbe, 0x05, 0x20, 0xaa, 0xbe, 0xa6, 0xf9, 0x0d, 0xbe,
  0x74, 0xc5, 0xdd, 0xbd, 0x39, 0x1b, 0xb2, 0x3c, 0x97, 0xa1, 0x05, 0xbb,
  0xb9, 0x85, 0xf4, 0x3d, 0x89, 0xcd, 0x58, 0x3d, 0x9e, 0xe0, 0x40, 0xbe,
  0xc3, 0xd5, 0xfb, 0xbc, 0xf8, 0xdd, 0x48, 0xbe, 0x2b, 0xfa, 0xac, 0xbe,
  0x87, 0x93, 0xa1, 0x3d, 0x56, 0x63, 0xf7, 0xbc, 0xf7, 0xc4, 0xb3, 0x3d,
  0x91, 0x2f, 0x00, 0xbe, 0x29, 0x61, 0x22, 0x3e, 0x08, 0xa2, 0xcb, 0xbd,
  0xab, 0x00, 0x08, 0xbe, 0xbe, 0xdf, 0x20, 0xbe, 0x5d, 0x93, 0x72, 0xbd,
  0xc1, 0xf6, 0x47, 0x3b, 0x63, 0x9c, 0x2a, 0x3e, 0x2f, 0xb1, 0x75, 0xbd,
  0x34, 0x83, 0xb2, 0xbd, 0x83, 0x11, 0x40, 0xbd, 0x86, 0x41, 0x20, 0xbe,
  0x77, 0xc5, 0x94, 0xbc, 0x21, 0x27, 0x69, 0xbe, 0x5c, 0xf1, 0x13, 0xbe,
  0x48, 0x08, 0x7c, 0xbe, 0xb3, 0x8e, 0x37, 0xbe, 0x95, 0x52, 0x06, 0x3e,
  0xb8, 0x73, 0x17, 0xbe, 0xa7, 0x84, 0x14, 0x3e, 0x3c, 0xec, 0x4b, 0x3d,
  0xc7, 0x05, 0x09, 0xbe, 0xb2, 0x58, 0x4e, 0xbe, 0x9f, 0x95, 0x2d, 0xbd,
  0x5a, 0x3a, 0x9c, 0xbd, 0xd9, 0x39, 0x9b, 0x3c, 0xef, 0xf0, 0x8f, 0xbd,
  0xa7, 0xac, 0x36, 0xbd, 0xa8, 0x14, 0x11, 0x3e, 0xaf, 0x3b, 0xb2, 0x3d,
  0x44, 0x28, 0x1c, 0x3e, 0x6d, 0x7e, 0xe4, 0x3b, 0x25, 0x6c, 0x07, 0x3e,
  0xb4, 0x42, 0x4d, 0x3e, 0x3d, 0x1d, 0x41, 0xbe, 0x47, 0x8e, 0x17, 0xbc,
  0x8d, 0x0c, 0xf3, 0x3d, 0x72, 0x1d, 0x12, 0x3e, 0xc7, 0xff, 0x8a, 0xbd,
  0x64, 0x1c, 0xf0, 0x3d, 0x1f, 0x02, 0x89, 0x3e, 0xe2, 0x4c, 0x6d, 0x3e,
  0x33, 0xfe, 0x85, 0xbd, 0xa3, 0xee, 0x52, 0x3d, 0x78, 0xde, 0xad, 0xbd,
  0x92, 0xbe, 0x62, 0xbe, 0xfd, 0x59, 0x91, 0xbc, 0xe6, 0x61, 0x81, 0x3e,
  0xb9, 0xce, 0x34, 0xbd, 0x6d, 0x77, 0xe9, 0x3d, 0x53, 0x16, 0x75, 0xbe,
  0x70, 0x2c, 0x43, 0xbe, 0x70, 0x99, 0x0b, 0xbe, 0x02, 0x7b, 0x0c, 0x3d,
  0x0a, 0xd4, 0x7d, 0xbe, 0x7c, 0xdb, 0x50, 0x3d, 0xfa, 0x50, 0x40, 0x3e,
  0x2e, 0x87, 0x95, 0x3d, 0x65, 0xdd, 0x81, 0xbd, 0xea, 0x52, 0x60, 0xbc,
  0x12, 0xc3, 0x9b, 0xbe, 0x7e, 0x38, 0xac, 0x3c, 0xca, 0x0d, 0xc9, 0xbd,
  0xc3, 0x15, 0x6f, 0xbd, 0xd5, 0x54, 0xbd, 0x3d, 0xd6, 0xf0, 0x34, 0x3e,
  0xcb, 0x31, 0xd1, 0x3d, 0xf9, 0x26, 0x87, 0xbd, 0x0d, 0x58, 0x87, 0xbe,
  0x67, 0x90, 0x53, 0xbe, 0xc9, 0xcd, 0x0e, 0xbe, 0x83, 0xf5, 0xa9, 0x3a,
  0x6b, 0x14, 0x00, 0xbb, 0x0c, 0x44, 0x43, 0x3e, 0x0f, 0x6a, 0xe1, 0x3d,
  0xd9, 0xe3, 0xf1, 0xbd, 0x36, 0x66, 0xa6, 0xbe, 0xb4, 0x5c, 0xa2, 0xbe,
  0x99, 0x31, 0x0d, 0x3d, 0x2c, 0x6c, 0x7b, 0xbe, 0xfd, 0x65, 0xa7, 0xbc,
  0x62, 0x51, 0x7c, 0x3e, 0x59, 0x3e, 0x01, 0x3e, 0xb7, 0x8a, 0x9c, 0xbe,
  0x08, 0x0c, 0x82, 0xbe, 0xa1, 0xd5, 0xd6, 0xbd, 0x6b, 0x51, 0x87, 0xbe,
  0x55, 0x9c, 0x84, 0xbd, 0xf1, 0x32, 0xd3, 0xbd, 0xcc, 0x6e, 0x5b, 0xbd,
  0xe9, 0x6a, 0x9e, 0xbc, 0xb6, 0xe9, 0xd0, 0xbc, 0xb6, 0x87, 0x77, 0xbe,
  0x78, 0xe7, 0x15, 0xbe, 0xd2, 0x62, 0x3d, 0x3e, 0xa4, 0x2c, 0xf1, 0xbd,
  0xe6, 0x46, 0x6e, 0xbe, 0xe2, 0x88, 0x2c, 0x3e, 0xa4, 0x8a, 0x0c, 0xbd,
  0x90, 0xdd, 0x72, 0x3d, 0xed, 0x14, 0x76, 0xbe, 0xd8, 0x9e, 0x56, 0xbc,
  0x7a, 0x97, 0x0e, 0x3d, 0x2f, 0x6d, 0xba, 0x3d, 0xbc, 0x42, 0x96, 0x3e,
  0x02, 0xfa, 0x83, 0x3e, 0x00, 0xa1, 0x1e, 0xbe, 0x35, 0x05, 0x4f, 0xbe,
  0x6d, 0x1c, 0x87, 0xbe, 0x65, 0x0a, 0x08, 0x3d, 0xfa, 0x3d, 0xf7, 0xbd,
  0x42, 0x7f, 0x7b, 0xbd, 0x70, 0x9d, 0xb7, 0x3d, 0xe9, 0x6c, 0xf8, 0x3d,
  0xdd, 0xb4, 0x0a, 0x3e, 0xc9, 0x21, 0x50, 0xbe, 0x33, 0xbf, 0xca, 0xbb,
  0x73, 0x31, 0xd3, 0x3d, 0x8e, 0xac, 0x56, 0xbe, 0x1f, 0x27, 0x27, 0xbb,
  0x8c, 0x81, 0x55, 0x3e, 0x07, 0x7d, 0xee, 0xbd, 0xba, 0xd7, 0x0d, 0xbe,
  0x40, 0xcf, 0x73, 0xbd, 0x69, 0x2b, 0xd1, 0xbd, 0xc5, 0xb6, 0x91, 0xbd,
  0x8d, 0x38, 0x58, 0x3b, 0x7d, 0x95, 0x03, 0xbe, 0xa9, 0x10, 0x99, 0x3d,
  0x6d, 0x8e, 0xa1, 0x3e, 0xb2, 0xc9, 0x61, 0x3c, 0xca, 0xc8, 0x1e, 0x3e,
  0x2a, 0xce, 0x77, 0xbe, 0xd0, 0xd3, 0xbf, 0x3d, 0x2b, 0xc1, 0x15, 0xbe,
  0xd6, 0xba, 0x08, 0x3e, 0xae, 0x33, 0x13, 0x3e, 0x67, 0xe1, 0x23, 0x3e,
  0x10, 0xea, 0x90, 0xbd, 0xdd, 0xa7, 0x00, 0xbe, 0x0a, 0x8f, 0x09, 0x3e,
  0x6f, 0x7f, 0xb4, 0xbd, 0x91, 0x51, 0x01, 0x3e, 0x07, 0x32, 0x1b, 0xbe,
  0x98, 0x1c, 0xc4, 0x3b, 0xa6, 0x05, 0xf3, 0x3d, 0x45, 0xd6, 0x09, 0x3d,
  0x66, 0x2a, 0xe8, 0x3d, 0x91, 0x0c, 0x15, 0xbd, 0x10, 0xd7, 0x94, 0x3d,
  0x22, 0xc4, 0x2b, 0xbe, 0x94, 0xde, 0x75, 0x3e, 0x03, 0xbc, 0x5f, 0x3e,
  0x97, 0x0d, 0xa9, 0xbc, 0x8d, 0x11, 0xb2, 0xbd, 0x7c, 0x4e, 0x09, 0xbd,
  0x61, 0xf2, 0x8f, 0xbd, 0x6c, 0x5a, 0x0b, 0xbd, 0xdf, 0x01, 0x72, 0x3e,
  0x1b, 0x94, 0x6f, 0x3d, 0xf2, 0xbd, 0xc4, 0x3d, 0x60, 0x51, 0x9b, 0x3e,
  0x01, 0xe1, 0xa1, 0x3c, 0xfd, 0xd4, 0x14, 0xbe, 0x62, 0x43, 0x36, 0x3d,
  0xbe, 0x59, 0x1f, 0x3d, 0x86, 0x8a, 0x49, 0x3d, 0xad, 0x73, 0x31, 0x3e,
  0x4b, 0x79, 0x3b, 0x3e, 0x05, 0xbe, 0xf9, 0x3d, 0xf4, 0x5e, 0x50, 0xbe,
  0x69, 0x5a, 0x1a, 0xbe, 0x0f, 0x1d, 0x08, 0x3e, 0x04, 0x8e, 0x09, 0x3c,
  0xff, 0x94, 0x64, 0x3e, 0xe7, 0xcf, 0x0e, 0x3e, 0xb2, 0x82, 0x94, 0x3b,
  0xab, 0xae, 0xe3, 0x3d, 0xf5, 0x87, 0x8d, 0xbe, 0xb2, 0x46, 0x26, 0xbe,
  0xa0, 0x27, 0x16, 0xbd, 0x0f, 0x16, 0xe0, 0xbd, 0xb5, 0x4b, 0xaa, 0xbc,
  0xce, 0xf3, 0xd6, 0x3d, 0x40, 0xa2, 0xc0, 0xbd, 0xfd, 0xa4, 0x06, 0x3c,
  0x76, 0xa8, 0x10, 0xbd, 0x93, 0x02, 0x9d, 0xbc, 0xf9, 0xf7, 0x3f, 0xbe,
  0x1f, 0xd3, 0xa0, 0xbc, 0xfe, 0x31, 0xc3, 0x3d, 0xe3, 0xaf, 0x5a, 0xbe,
  0x3b, 0x65, 0xe1, 0x3b, 0x50, 0x6c, 0x3b, 0xbe, 0x80, 0x7a, 0x2e, 0xbe,
  0xa9, 0x55, 0xb0, 0xbd, 0x09, 0x2a, 0x45, 0xbe, 0xc4, 0x63, 0x94, 0xbd,
  0x98, 0xa1, 0x22, 0xbd, 0xd6, 0xed, 0xd1, 0x3d, 0x58, 0x12, 0xc5, 0xbd,
  0x52, 0xa7, 0x41, 0xbe, 0x83, 0x53, 0x97, 0xbc, 0xac, 0x3f, 0x6b, 0xbe,
  0x41, 0x98, 0x8b, 0xbe, 0xae, 0xa4, 0xa1, 0xbd, 0x46, 0xa4, 0x01, 0xbe,
  0x3d, 0xb6, 0xc4, 0xbd, 0xad, 0x35, 0x1b, 0x3e, 0xba, 0xf2, 0x15, 0x3e,
  0x5f, 0x68, 0xc8, 0x3d, 0xe3, 0x71, 0x91, 0xbe, 0x5d, 0xc9, 0x62, 0xbe,
  0x87, 0x2a, 0xbb, 0x3d, 0x1c, 0x0f, 0x4e, 0x3e, 0x8b, 0x25, 0xe9, 0x3c,
  0x74, 0xda, 0xa2, 0x3c, 0x0f, 0x63, 0xa4, 0xbd, 0x0f, 0xc2, 0x00, 0xbe,
  0xa4, 0x01, 0x10, 0xbe, 0x45, 0x29, 0x80, 0xbe, 0xf6, 0xde, 0x08, 0xbe,
  0xcc, 0xe3, 0x93, 0x3b, 0x2e, 0x42, 0xc9, 0xbd, 0x28, 0x34, 0xdc, 0x3d,
  0xa2, 0x91, 0x19, 0xbd, 0xe2, 0x94, 0x31, 0xbe, 0x01, 0x0a, 0xfa, 0x3d,
  0x04, 0xe9, 0xc7, 0x3b, 0xe1, 0x8c, 0x3a, 0xbd, 0xeb, 0x9b, 0x1b, 0x3e,
  0x31, 0x5e, 0xbc, 0x3d, 0xa1, 0xf7, 0x55, 0x3d, 0xa7, 0x2b, 0x8f, 0xbd,
  0x7a, 0xf3, 0x88, 0xbe, 0x6c, 0xa4, 0x1f, 0xbe, 0x69, 0x04, 0x24, 0x3e,
  0x9c, 0x20, 0x7d, 0x3d, 0x6e, 0x02, 0x4c, 0x3e, 0xc9, 0x40, 0xd8, 0x3d,
  0xd7, 0x33, 0x34, 0x39, 0xf4, 0x87, 0x54, 0x3e, 0xb2, 0x05, 0xa8, 0x3d,
  0x2c, 0x43, 0xb6, 0xbd, 0x81, 0x42, 0x96, 0xbc, 0xe8, 0xa4, 0x91, 0x3d,
  0xe7, 0xb4, 0x83, 0x3e, 0x07, 0x3c, 0x2e, 0xbd, 0xce, 0x33, 0xc2, 0x3d,
  0xf4, 0xb7, 0x4c, 0xbd, 0xc9, 0xe9, 0xc8, 0x3d, 0x7e, 0x80, 0xbc, 0xbc,
  0x6d, 0xeb, 0x5d, 0x3e, 0xe3, 0x42, 0x0c, 0xbe, 0xb1, 0x1a, 0xd5, 0xbd,
  0x75, 0x19, 0x44, 0xbe, 0xd0, 0x6d, 0x19, 0x3d, 0x69, 0x11, 0x1a, 0x3e,
  0xf2, 0x67, 0x03, 0x3e, 0xa7, 0x4d, 0x02, 0x3e, 0xff, 0x7e, 0xf0, 0x3d,
  0xbc, 0xb3, 0xd3, 0x3d, 0xa4, 0xac, 0x10, 0xbe, 0x68, 0x45, 0x9e, 0xbd,
  0xeb, 0x93, 0xf8, 0xbc, 0x6f, 0xe3, 0x7f, 0xbe, 0x88, 0x46, 0xd4, 0x3d,
  0x9b, 0x8a, 0x79, 0xbe, 0xbb, 0x4c, 0x07, 0x3e, 0xc1, 0xc4, 0x84, 0xbe,
  0xed, 0x11, 0x13, 0x3d, 0x04, 0xb9, 0x19, 0x3d, 0xde, 0x69, 0x24, 0xbd,
  0xd1, 0x43, 0x03, 0x3d, 0x36, 0x7a, 0x49, 0xbe, 0xfb, 0xd6, 0x8e, 0xbe,
  0x5f, 0x5e, 0xf5, 0xbd, 0xd9, 0xa7, 0x44, 0xba, 0x10, 0x71, 0x76, 0x3b,
  0x45, 0x0d, 0x7e, 0xbe, 0x53, 0x94, 0x04, 0xbe, 0x40, 0x58, 0xcf, 0xbd,
  0x94, 0x1a, 0x9a, 0xbd, 0x95, 0x99, 0xda, 0x3d, 0x12, 0xdf, 0xc5, 0x3d,
  0x12, 0xbe, 0x18, 0xbe, 0xf7, 0x09, 0x47, 0x3d, 0xaf, 0x55, 0xc5, 0xbd,
  0x40, 0xca, 0x5b, 0xbe, 0xc8, 0x85, 0xb7, 0xbd, 0xe6, 0x98, 0x6b, 0xbd,
  0xe8, 0x83, 0xf8, 0xbd, 0xc5, 0xa9, 0x28, 0xbe, 0x44, 0xdf, 0xed, 0xbc,
  0xab, 0xb7, 0x3b, 0xbe, 0xca, 0xd6, 0x21, 0x3e, 0xb1, 0x98, 0x30, 0xbe,
  0xd4, 0x8d, 0x14, 0x3e, 0x2a, 0xf3, 0xa2, 0x3d, 0xf7, 0xa3, 0x3e, 0x3e,
  0xfd, 0xf1, 0x13, 0xbe, 0x46, 0x80, 0xbb, 0x3d, 0x6b, 0x0d, 0x8a, 0x3d,
  0xec, 0xfd, 0x09, 0x3e, 0xfc, 0x56, 0xb4, 0x3d, 0x2e, 0x6b, 0x2d, 0x3e,
  0x34, 0x81, 0xf9, 0xbd, 0x4d, 0x46, 0x37, 0xbe, 0x20, 0x96, 0x57, 0xbe,
  0xe0, 0xaa, 0x30, 0xbe, 0x09, 0xf5, 0x2e, 0xbe, 0xee, 0x7c, 0xd0, 0x3d,
  0x4b, 0xd7, 0x28, 0xbd, 0x2b, 0x72, 0x1c, 0xbe, 0x85, 0x37, 0xe8, 0xbd,
  0x2b, 0x3b, 0xbd, 0xbc, 0x41, 0xef, 0x64, 0xbe, 0x6b, 0xde, 0xb4, 0xbd,
  0xfd, 0x79, 0xfc, 0xbd, 0xa3, 0x26, 0x97, 0x3d, 0x3d, 0xf8, 0x0c, 0xbd,
  0x24, 0xcb, 0x58, 0x3e, 0xdb, 0xc5, 0xbe, 0xb9, 0xc9, 0x14, 0xd6, 0xbd,
  0x7a, 0xb3, 0x23, 0x3d, 0xfd, 0x62, 0x5c, 0x3d, 0x4d, 0x91, 0x54, 0xbe,
  0xe2, 0x93, 0x5b, 0x3d, 0x77, 0x3c, 0x97, 0xbd, 0x04, 0xae, 0x43, 0xbe,
  0xcf, 0x45, 0xe4, 0x3d, 0xce, 0x06, 0xa7, 0xbd, 0x25, 0xe2, 0xd5, 0xbd,
  0x38, 0x34, 0xde, 0x3b, 0x4b, 0xc5, 0x0b, 0xbe, 0x73, 0xc6, 0x94, 0xbc,
  0xcb, 0x47, 0x96, 0x3d, 0x22, 0xb9, 0x3a, 0x3e, 0xa8, 0x9a, 0xdf, 0xbd,
  0x07, 0x6a, 0xf0, 0xbd, 0x92, 0xbe, 0x69, 0xbd, 0x76, 0xb8, 0x5c, 0xbd,
  0x6c, 0x29, 0x69, 0xbd, 0xc6, 0x5a, 0xec, 0x3d, 0xf8, 0x68, 0x12, 0xbd,
  0x5c, 0xa7, 0x75, 0xbe, 0xbb, 0xfa, 0x71, 0xbe, 0x17, 0x46, 0xd7, 0xbd,
  0x43, 0x81, 0xe7, 0x3b, 0x7f, 0x35, 0x8b, 0xbe, 0x30, 0x46, 0x1b, 0x3d,
  0xea, 0x7c, 0x33, 0xbe, 0x2a, 0x53, 0xd8, 0xbd, 0xc5, 0x2d, 0xbc, 0x3c,
  0x46, 0x32, 0x65, 0x3e, 0x30, 0x1d, 0x87, 0xbd, 0xd9, 0x96, 0x26, 0xbe,
  0x17, 0xcf, 0x11, 0x3d, 0x82, 0xd2, 0xa5, 0xbd, 0x6c, 0xf2, 0x43, 0x3e,
  0x37, 0xbe, 0x39, 0xbc, 0x21, 0x10, 0x23, 0x3e, 0xb2, 0x7d, 0x00, 0x3d,
  0x16, 0x64, 0x34, 0xbd, 0x88, 0x23, 0x2f, 0xbd, 0x5d, 0x86, 0xb8, 0xbd,
  0x02, 0x67, 0x1e, 0x3e, 0x69, 0xbc, 0x90, 0x3d, 0xda, 0x28, 0x8a, 0xbc,
  0x2d, 0x90, 0x2a, 0x3e, 0x21, 0xde, 0x20, 0xbe, 0x28, 0x17, 0x23, 0x3d,
  0x4f, 0x75, 0x77, 0xbc, 0xe5, 0x4b, 0x4a, 0xbd, 0x25, 0x64, 0x69, 0x3e,
  0xb3, 0xd1, 0xc4, 0xbd, 0x67, 0xbf, 0xed, 0xbc, 0x39, 0x92, 0x5e, 0xbd,
  0xb5, 0x19, 0x81, 0xbe, 0x2d, 0xf3, 0x06, 0x3e, 0x49, 0x9d, 0x82, 0xbd,
  0x54, 0x57, 0x1b, 0x3e, 0x08, 0x68, 0x92, 0xbd, 0x08, 0x08, 0xf0, 0x3d,
  0x32, 0xaa, 0x14, 0x3e, 0x82, 0x6e, 0x39, 0x3e, 0x01, 0x85, 0xd7, 0x3c,
  0x79, 0x4e, 0xe8, 0x3d, 0xde, 0xae, 0xdb, 0xbc, 0x3c, 0xba, 0x28, 0xbe,
  0x14, 0x9c, 0x16, 0x3e, 0x78, 0x03, 0x66, 0x3d, 0x1e, 0xe5, 0xde, 0x3d,
  0x01, 0x2a, 0xbe, 0xbd, 0x51, 0x35, 0xcf, 0x3d, 0x0e, 0xf8, 0xe2, 0x3d,
  0x1d, 0x1a, 0x2c, 0x3e, 0xb1, 0xf8, 0x01, 0x3e, 0x25, 0x70, 0x9c, 0x3d,
  0xd1, 0x23, 0xa9, 0x3d, 0x21, 0xdf, 0xfc, 0x3d, 0xab, 0x0b, 0x2a, 0xbd,
  0xb9, 0x57, 0xfd, 0x3d, 0x69, 0xf0, 0x40, 0xbe, 0x47, 0xec, 0x6a, 0x3c,
  0xf2, 0xbf, 0xa3, 0xbd, 0x9b, 0x66, 0x8a, 0x3d, 0x61, 0xd6, 0x9e, 0xbc,
  0x71, 0x33, 0xc0, 0x3d, 0xac, 0x01, 0x2e, 0x3e, 0x5e, 0x5b, 0xaf, 0xbd,
  0xde, 0x74, 0xcd, 0xbd, 0x9a, 0xd1, 0x04, 0x3e, 0x14, 0xdc, 0xd5, 0xbd,
  0x8e, 0xa7, 0x8b, 0x3d, 0x89, 0x04, 0x9c, 0xbd, 0xf1, 0x0d, 0x2e, 0x3c,
  0x4d, 0x97, 0x0e, 0x3e, 0xa2, 0xee, 0xff, 0xff, 0x04, 0x00, 0x00, 0x00,
  0x00, 0x0a, 0x00, 0x00, 0x6e, 0xdc, 0xbf, 0x3d, 0x87, 0x1e, 0x71, 0xbd,
  0x86, 0x87, 0x00, 0x3e, 0xa3, 0xaf, 0x43, 0x3d, 0x22, 0xff, 0x78, 0x3d,
  0x67, 0x37, 0xd5, 0x3d, 0xcd, 0x25, 0x35, 0xbd, 0x86, 0x39, 0x77, 0xbd,
  0xf9, 0x32, 0x39, 0x3e, 0x3c, 0x44, 0xc9, 0x3c, 0x32, 0x79, 0x24, 0x3e,
  0x28, 0xaa, 0x50, 0x3e, 0xb5, 0xce, 0x9b, 0x3e, 0xab, 0x14, 0xfb, 0x3d,
  0x67, 0x91, 0xfe, 0xbb, 0xb5, 0x0a, 0x9b, 0x3d, 0x44, 0xc7, 0xf6, 0x3d,
  0xbd, 0xed, 0xa3, 0xbc, 0xcf, 0x49, 0x36, 0xbe, 0xb5, 0x14, 0x9a, 0x3d,
  0x19, 0xa0, 0x0d, 0xbc, 0x0a, 0x5f, 0xd1, 0xbb, 0x11, 0x07, 0x26, 0x3e,
  0xcc, 0x55, 0x36, 0xbc, 0xc8, 0xfb, 0xf1, 0xbd, 0xb6, 0xe4, 0x61, 0x3d,
  0xb5, 0x94, 0xe1, 0x3d, 0x76, 0x97, 0xaf, 0x3d, 0xdb, 0x65, 0x1c, 0x3c,
  0x61, 0x1a, 0x9d, 0xbb, 0xdb, 0xe4, 0x53, 0xbe, 0x57, 0x2b, 0x67, 0xbe,
  0x2a, 0x82, 0xb8, 0xbd, 0xab, 0xa6, 0x17, 0x3e, 0xd0, 0x31, 0x98, 0xbd,
  0x25, 0xf1, 0x2b, 0x3c, 0x07, 0x45, 0x4e, 0x3d, 0xb5, 0x69, 0x66, 0xbe,
  0x6e, 0x11, 0xeb, 0x3d, 0xe6, 0xea, 0x5f, 0xbd, 0xe6, 0xbf, 0x29, 0xbe,
  0x3f, 0x02, 0x3c, 0x3e, 0x09, 0x25, 0x96, 0x3d, 0xe0, 0x19, 0x3a, 0xbe,
  0x8d, 0xf7, 0x99, 0x3d, 0x2a, 0x03, 0x23, 0x3e, 0xb8, 0x89, 0x3e, 0x3e,
  0x62, 0xfb, 0xb9, 0x3d, 0xbb, 0xe6, 0x1c, 0x3e, 0x65, 0xab, 0x6d, 0x3e,
  0xc8, 0x49, 0x4f, 0xbd, 0x20, 0x77, 0xb8, 0x3c, 0x92, 0x8c, 0x0b, 0xbe,
  0xb9, 0x2c, 0x1d, 0xbd, 0x61, 0x40, 0x2d, 0xbe, 0x32, 0x32, 0x7c, 0x3d,
  0x70, 0x59, 0xf9, 0x3d, 0x5e, 0x10, 0x2b, 0x3e, 0x96, 0x99, 0x4a, 0xbc,
  0x8f, 0xcc, 0xa0, 0x3e, 0xdf, 0xf0, 0x44, 0x3d, 0x29, 0x8e, 0xb1, 0x3d,
  0xc9, 0xe8, 0xc7, 0xba, 0x62, 0x07, 0x0e, 0x3e, 0x96, 0x7b, 0xcd, 0x3c,
  0xa4, 0x3f, 0x7e, 0xbe, 0xa6, 0x08, 0x66, 0xbe, 0x34, 0x8a, 0xda, 0x3d,
  0xb9, 0xe6, 0xb2, 0x3b, 0x1b, 0xe8, 0x1f, 0xbe, 0x3b, 0x9d, 0xec, 0xbd,
  0x6b, 0xeb, 0x83, 0x3e, 0xd7, 0x94, 0x21, 0x3e, 0x61, 0xf5, 0x40, 0x3e,
  0xc8, 0x33, 0x54, 0xbe, 0x20, 0xe3, 0x15, 0xbc, 0xb8, 0x46, 0xba, 0x3d,
  0x11, 0x65, 0xf0, 0xbd, 0x7e, 0x5b, 0x0f, 0xbe, 0x81, 0xc7, 0x67, 0x3e,
  0xbe, 0x77, 0x80, 0x3e, 0x6a, 0x9d, 0x4b, 0x3e, 0x5e, 0x53, 0x36, 0xbe,
  0xb5, 0x4a, 0xe6, 0xbd, 0x28, 0xe3, 0xbb, 0x3d, 0x57, 0xda, 0x3d, 0xbd,
  0xf6, 0x88, 0x05, 0x3e, 0x6d, 0x7b, 0xee, 0x3d, 0xab, 0x2e, 0x42, 0xbe,
  0x8e, 0xa2, 0x00, 0x3e, 0x03, 0x77, 0xf3, 0xbd, 0x70, 0x2f, 0x30, 0xbe,
  0x51, 0xf3, 0x93, 0xbd, 0x1d, 0xaf, 0x78, 0x3e, 0x09, 0x4c, 0xf2, 0x3d,
  0x7f, 0x24, 0xed, 0xbd, 0xd8, 0xa7, 0xb0, 0xbd, 0x6a, 0xf9, 0x72, 0xbe,
  0x81, 0x3e, 0x86, 0xbd, 0x81, 0x24, 0xa4, 0x3c, 0x84, 0xcc, 0x28, 0x3e,
  0xfc, 0x50, 0xa9, 0xbd, 0x0e, 0x67, 0x88, 0xbd, 0x8f, 0x93, 0x67, 0x3e,
  0x1b, 0xee, 0x3e, 0xbe, 0x55, 0xeb, 0x9c, 0xbd, 0xe3, 0xfc, 0x92, 0x3d,
  0xd5, 0x0e, 0xc8, 0x3c, 0xe0, 0x64, 0xf4, 0x3c, 0x72, 0x92, 0x5e, 0x3c,
  0x22, 0x77, 0xd1, 0xbc, 0x41, 0x10, 0xf9, 0x3d, 0x78, 0x11, 0x06, 0xbe,
  0x72, 0x9d, 0x42, 0xbe, 0x8e, 0xe9, 0x1d, 0x3e, 0x12, 0x4e, 0xc2, 0x3d,
  0x57, 0xc4, 0x88, 0xbd, 0xe4, 0x61, 0xdb, 0xbd, 0x01, 0x20, 0xe7, 0x3d,
  0x77, 0x0e, 0x10, 0xbd, 0xe3, 0x08, 0xf2, 0x3c, 0x29, 0x71, 0x11, 0xbc,
  0xf1, 0x0c, 0x19, 0xbd, 0xbe, 0x76, 0x07, 0xbe, 0x95, 0x5d, 0x65, 0x3e,
  0xa8, 0x68, 0xcf, 0xbd, 0x02, 0x26, 0x32, 0x3e, 0x15, 0x19, 0x93, 0x3e,
  0x0a, 0xd7, 0x68, 0xbe, 0x44, 0x6c, 0x5f, 0x3d, 0x99, 0xd2, 0x4a, 0xbe,
  0xbf, 0xec, 0xfa, 0xbd, 0x80, 0x50, 0x4d, 0xbd, 0xd4, 0xae, 0x35, 0x3e,
  0xf6, 0x5c, 0xab, 0x3d, 0xa8, 0xa0, 0x71, 0xbe, 0x62, 0x8f, 0x4c, 0x3e,
  0x1f, 0xe9, 0x8d, 0xbd, 0xd3, 0x5a, 0x61, 0x3e, 0xef, 0x18, 0x3e, 0x3e,
  0x48, 0x5a, 0xe1, 0x3d, 0x2d, 0xa8, 0xb8, 0x3c, 0x69, 0xae, 0xb4, 0x3c,
  0x4d, 0xe0, 0x05, 0xbe, 0xa1, 0xc2, 0x63, 0x3e, 0xe5, 0xac, 0x4e, 0x3d,
  0x2d, 0x48, 0x11, 0xbe, 0x7d, 0xff, 0x56, 0xbd, 0x33, 0x85, 0x7e, 0x3d,
  0x1d, 0xaa, 0x85, 0xbc, 0xff, 0x90, 0x0e, 0xbd, 0x80, 0xf5, 0x8c, 0xbe,
  0xeb, 0x28, 0x04, 0x3d, 0x5a, 0x36, 0x13, 0x3e, 0x07, 0x18, 0x8e, 0xbe,
  0x02, 0xd5, 0x34, 0xbe, 0x6e, 0x4b, 0x3a, 0xbe, 0xfd, 0x0b, 0xba, 0x3d,
  0x80, 0xc4, 0xa3, 0xbd, 0xc2, 0x43, 0x54, 0xbe, 0xe5, 0x7d, 0x8a, 0x3d,
  0xe3, 0x2f, 0x40, 0xbe, 0x55, 0x01, 0x87, 0xbd, 0xae, 0x37, 0xcc, 0x3d,
  0x15, 0x6c, 0xed, 0xbd, 0x24, 0x50, 0x0a, 0xbe, 0xf3, 0xf2, 0x06, 0x3e,
  0x3e, 0x7b, 0x1b, 0x3e, 0xb6, 0x52, 0x2e, 0xbd, 0xe8, 0x7b, 0x06, 0xbe,
  0x31, 0x85, 0x81, 0xbe, 0xa5, 0x82, 0x23, 0x3e, 0xc0, 0x17, 0x8e, 0xbd,
  0xe2, 0x45, 0x85, 0xbe, 0x6d, 0x58, 0xe9, 0xbb, 0xed, 0xcf, 0xa7, 0x3d,
  0x4c, 0x0f, 0x70, 0xbe, 0x0a, 0xda, 0x07, 0xbe, 0x77, 0xf6, 0xcb, 0xbd,
  0xee, 0x15, 0x2d, 0x3e, 0x3f, 0xc9, 0x18, 0x3e, 0x11, 0xce, 0x44, 0xbd,
  0xe7, 0xd2, 0x34, 0x3e, 0x29, 0xd8, 0x0c, 0xbe, 0xc3, 0x16, 0x3c, 0xbe,
  0xed, 0x9c, 0x65, 0x3d, 0x5c, 0x09, 0xad, 0x3d, 0xed, 0x62, 0x4d, 0x3d,
  0x2f, 0x83, 0xcb, 0x3d, 0x57, 0x6a, 0x6d, 0x3e, 0xbe, 0xb9, 0xb8, 0xbd,
  0xaa, 0x77, 0x8b, 0x3d, 0x58, 0x4f, 0x69, 0xbe, 0x4c, 0x2a, 0x9c, 0xbe,
  0x0c, 0xe1, 0x80, 0x3d, 0xec, 0x55, 0x9d, 0x3b, 0xe2, 0x52, 0x40, 0x3e,
  0x31, 0xbd, 0x4c, 0xbd, 0xd4, 0xa0, 0x2b, 0xbe, 0x55, 0x60, 0x0a, 0xbe,
  0x47, 0x39, 0xa7, 0xbd, 0x4d, 0x20, 0x72, 0xbd, 0x78, 0x3d, 0x83, 0xbd,
  0x0e, 0x24, 0x5a, 0x3e, 0x2b, 0x3f, 0x28, 0xbe, 0x97, 0xd8, 0x27, 0x3e,
  0x72, 0x86, 0x04, 0xbe, 0x73, 0x10, 0x50, 0xbe, 0x70, 0x01, 0x48, 0x3d,
  0x2f, 0x93, 0x06, 0x3d, 0x7a, 0xe8, 0x86, 0x3e, 0x67, 0xf8, 0x79, 0x3d,
  0x1d, 0x81, 0x40, 0x3e, 0x49, 0xe3, 0x00, 0xbe, 0xe7, 0xe5, 0xd3, 0xbd,
  0x80, 0x65, 0x81, 0x3e, 0x0a, 0x7a, 0xab, 0x3d, 0x8f, 0x2f, 0xfc, 0x3d,
  0xc2, 0xcd, 0x78, 0x3d, 0xed, 0xd2, 0x27, 0xbd, 0x32, 0x53, 0x47, 0xbe,
  0xe5, 0x98, 0x64, 0xbe, 0xd6, 0xbf, 0x33, 0xbe, 0x0c, 0xdf, 0x24, 0xbe,
  0x68, 0x49, 0xb9, 0xbc, 0x40, 0x5b, 0x90, 0xbc, 0x48, 0x78, 0x05, 0x3d,
  0xed, 0x6c, 0x19, 0x3e, 0x71, 0xc3, 0xb9, 0xbd, 0xd9, 0x05, 0x4b, 0x3b,
  0xa4, 0x42, 0x00, 0xbd, 0x44, 0x27, 0x21, 0xbe, 0x0f, 0xbd, 0xd3, 0xbd,
  0x84, 0xd2, 0xee, 0xbd, 0x68, 0xfa, 0x2c, 0x3e, 0x57, 0x29, 0x11, 0xbe,
  0x27, 0xc7, 0x35, 0xbd, 0x72, 0xb2, 0xec, 0xbc, 0x87, 0x0d, 0xd8, 0x3c,
  0x8b, 0xdd, 0x83, 0xbe, 0x29, 0x77, 0x0d, 0xbe, 0xa7, 0xca, 0x01, 0xbe,
  0xd9, 0x94, 0x4f, 0x3e, 0x71, 0xa0, 0x2d, 0x3e, 0x83, 0x77, 0x32, 0x3d,
  0x7b, 0x47, 0x1c, 0x3e, 0x50, 0xa0, 0x29, 0x3e, 0xd9, 0xbc, 0x2f, 0x3e,
  0x4d, 0x35, 0xec, 0xbc, 0xeb, 0x1c, 0x7d, 0x3d, 0x82, 0xed, 0x42, 0x3e,
  0x40, 0xc9, 0x8a, 0x3d, 0x28, 0xa1, 0x83, 0x3e, 0xaf, 0xa9, 0x97, 0xbd,
  0x48, 0x25, 0x64, 0x3e, 0x20, 0x10, 0x12, 0x3d, 0x43, 0xe8, 0xea, 0xbc,
  0xbd, 0xe2, 0x23, 0x3e, 0x7b, 0x4d, 0xca, 0xbd, 0xc8, 0x8a, 0x23, 0x3e,
  0x61, 0xa1, 0x58, 0xbe, 0x13, 0x6f, 0xcf, 0x3d, 0x69, 0x36, 0x1c, 0x3e,
  0x0f, 0xb8, 0x2b, 0x3e, 0x88, 0xe8, 0x36, 0xbe, 0x44, 0x71, 0x3d, 0x3e,
  0x6b, 0xb1, 0x03, 0x3e, 0xbb, 0x36, 0x5b, 0x3d, 0x97, 0x0b, 0x8b, 0x3e,
  0xed, 0x5d, 0x6f, 0xbd, 0x00, 0xc2, 0x0e, 0xbe, 0x5a, 0xe6, 0x13, 0xbe,
  0x05, 0x70, 0x16, 0xbd, 0x9c, 0xed, 0x28, 0x3d, 0xf8, 0xbc, 0x01, 0x3d,
  0xa2, 0xdf, 0x15, 0xbe, 0x4b, 0x00, 0x67, 0xbd, 0xc4, 0x63, 0x8b, 0x3e,
  0xfe, 0xe0, 0x91, 0xbd, 0x9d, 0x17, 0x05, 0xbe, 0x9d, 0x15, 0x52, 0x3e,
  0x8d, 0xb3, 0xeb, 0xbd, 0xca, 0x57, 0xe3, 0xbd, 0x70, 0x99, 0x49, 0x3c,
  0xbc, 0xdb, 0x3f, 0x3e, 0xd0, 0x3a, 0x30, 0xbd, 0x1a, 0xd2, 0x1e, 0x3e,
  0x96, 0x9b, 0x0a, 0x3e, 0x3e, 0x33, 0x4c, 0x3d, 0xeb, 0xe8, 0x6a, 0x3e,
  0x37, 0x81, 0x03, 0x3e, 0x0d, 0x29, 0x33, 0x3c, 0x0b, 0x97, 0x30, 0x3e,
  0x09, 0x43, 0x2c, 0xbe, 0x16, 0x43, 0x81, 0x3e, 0xab, 0x45, 0x15, 0xbe,
  0x41, 0xb5, 0xc7, 0x3d, 0x04, 0xf3, 0x66, 0xbd, 0xc7, 0x35, 0x2c, 0xbd,
  0x6b, 0x6b, 0x88, 0xbd, 0xa9, 0x3a, 0xe2, 0xbd, 0xd7, 0xba, 0x84, 0x3e,
  0x03, 0xcc, 0x26, 0x3e, 0x43, 0x86, 0xf8, 0x3d, 0xe2, 0xdc, 0x34, 0xbe,
  0x57, 0x74, 0x06, 0x3e, 0xd6, 0x67, 0xee, 0xbd, 0xf8, 0xf4, 0x79, 0x3d,
  0x02, 0x9a, 0x85, 0x3e, 0x08, 0x42, 0x5c, 0x3e, 0xda, 0x02, 0x28, 0x3d,
  0xe7, 0xc5, 0x43, 0x3e, 0xed, 0xe4, 0xc2, 0xbd, 0xc2, 0x00, 0xc5, 0xbd,
  0xf5, 0x49, 0x43, 0xbe, 0x9f, 0x45, 0x80, 0xbb, 0xee, 0xb6, 0x4c, 0xbe,
  0x59, 0x3e, 0xa6, 0x3e, 0xdb, 0x46, 0xdc, 0xbd, 0x84, 0x9a, 0x9d, 0xbd,
  0x48, 0xe3, 0x09, 0xbe, 0x15, 0x43, 0x35, 0xbe, 0x00, 0xbf, 0x3b, 0xbd,
  0x2b, 0xc0, 0xf8, 0xbd, 0xfe, 0x36, 0xaa, 0x3d, 0x3e, 0x85, 0x42, 0x3e,
  0x49, 0x10, 0x83, 0xbc, 0xe7, 0xf9, 0x2b, 0x3e, 0x2d, 0x12, 0x8d, 0xbd,
  0x9d, 0x40, 0x1c, 0x3e, 0x88, 0x38, 0x33, 0x3d, 0x63, 0x8a, 0x77, 0xbe,
  0xce, 0xf9, 0x1a, 0xbe, 0x15, 0x14, 0x16, 0x3e, 0xb6, 0x00, 0x81, 0xbd,
  0x67, 0x7e, 0x71, 0x3d, 0xac, 0xea, 0x81, 0x3e, 0x15, 0x0f, 0x92, 0x3e,
  0xe0, 0xd5, 0x17, 0xbe, 0x4a, 0x2b, 0x22, 0x3e, 0x14, 0xbc, 0xb4, 0x3b,
  0xf9, 0x88, 0xc8, 0x3d, 0xd1, 0x3e, 0x8a, 0x3e, 0x3c, 0x0f, 0xd3, 0x3d,
  0xfa, 0x4e, 0x08, 0xbd, 0x83, 0xd5, 0x87, 0xbd, 0xf9, 0x52, 0xb7, 0xbd,
  0x14, 0x48, 0x4d, 0x3e, 0x20, 0x1f, 0x05, 0xbe, 0x2e, 0xf2, 0x07, 0xbd,
  0x50, 0x1c, 0xec, 0x3d, 0x65, 0x5f, 0x4f, 0xbe, 0x07, 0x6a, 0x0c, 0xbe,
  0xa5, 0xd6, 0x83, 0x3d, 0x21, 0xcc, 0x37, 0xbe, 0xad, 0x68, 0x43, 0xbe,
  0x16, 0xf2, 0x1b, 0xbe, 0x96, 0x6b, 0x41, 0xbe, 0xc8, 0x21, 0x69, 0x3e,
  0x7e, 0x8b, 0x0f, 0xbc, 0x68, 0xa5, 0xc7, 0xbd, 0x2e, 0x72, 0xc6, 0x3d,
  0x59, 0x81, 0x49, 0x3e, 0x32, 0x2b, 0x22, 0x3e, 0x83, 0xf0, 0x2a, 0x3a,
  0x16, 0x05, 0x50, 0xbe, 0x50, 0xd6, 0x15, 0xbe, 0xd9, 0x96, 0xe4, 0xbd,
  0x93, 0x4b, 0x5e, 0x3e, 0x63, 0x8f, 0x17, 0x3d, 0x3f, 0xe0, 0x43, 0x3e,
  0x1a, 0x9e, 0x00, 0x3e, 0x04, 0x61, 0x21, 0xbe, 0xb5, 0x58, 0x21, 0xbe,
  0x7c, 0xfd, 0xe0, 0x3c, 0x4e, 0x7e, 0x8b, 0xbe, 0x43, 0xd8, 0xeb, 0xbd,
  0x29, 0xb2, 0x3c, 0xbc, 0xe0, 0x5f, 0x1f, 0x3e, 0xde, 0x2a, 0xd9, 0x3b,
  0xe1, 0x00, 0x4c, 0x3e, 0xd8, 0x45, 0x37, 0x3e, 0x91, 0x3f, 0x10, 0x3e,
  0xf5, 0x52, 0x84, 0xbd, 0x4b, 0x35, 0x23, 0xbe, 0xcc, 0xeb, 0x62, 0xbe,
  0x60, 0xd6, 0x5f, 0x3e, 0xcc, 0x3f, 0x3b, 0x3e, 0x0c, 0x16, 0x67, 0x3e,
  0x9a, 0x29, 0x8f, 0x3a, 0xf1, 0x3c, 0xa8, 0xbd, 0x7f, 0xa0, 0x34, 0xbd,
  0x0e, 0x08, 0xc7, 0x39, 0x20, 0x7e, 0x26, 0xbe, 0xe5, 0xc5, 0xa1, 0xbd,
  0x12, 0xc4, 0xf2, 0x3d, 0x22, 0xe4, 0x66, 0x3d, 0x42, 0x64, 0x11, 0xbe,
  0x2d, 0xbe, 0xe3, 0x3c, 0xfd, 0xe0, 0xe1, 0xbd, 0xee, 0xaa, 0x65, 0x3d,
  0xbf, 0x82, 0xbb, 0x3e, 0x9b, 0x99, 0x3f, 0xbe, 0xe9, 0x00, 0x9e, 0xbd,
  0x8e, 0x2f, 0xfa, 0x3b, 0xfc, 0xd8, 0x03, 0xbe, 0x41, 0xae, 0x50, 0xbe,
  0xed, 0x00, 0x0b, 0x3e, 0xc2, 0x33, 0x8d, 0x3d, 0x94, 0x15, 0x53, 0x3c,
  0x71, 0x61, 0x22, 0xbe, 0xd5, 0xcd, 0x4b, 0x3e, 0xef, 0x5a, 0xc4, 0x3d,
  0x2d, 0xb2, 0xac, 0xbc, 0xc3, 0x1f, 0x9f, 0xbe, 0xe3, 0x82, 0x8f, 0xbc,
  0x48, 0x6b, 0x0c, 0x3e, 0x41, 0x42, 0x20, 0xbe, 0x0f, 0xe5, 0xdd, 0xbd,
  0x08, 0x65, 0x9b, 0xbc, 0xc3, 0xa7, 0x42, 0xbe, 0x47, 0x2f, 0xfc, 0xbc,
  0x61, 0x2c, 0x80, 0xbe, 0xb9, 0xe9, 0x51, 0x3d, 0x94, 0x33, 0x81, 0x3e,
  0x22, 0x0c, 0x12, 0x3e, 0xba, 0xb5, 0x98, 0x3d, 0xc8, 0x86, 0x17, 0x3d,
  0x79, 0x08, 0x0a, 0x3e, 0xad, 0x42, 0x3e, 0xbc, 0xdf, 0x79, 0x82, 0x3e,
  0x62, 0xeb, 0x06, 0xbe, 0xf2, 0x2d, 0xd1, 0xbb, 0x2a, 0xdd, 0x3a, 0x3e,
  0x38, 0x69, 0x31, 0x3e, 0x2f, 0x51, 0x45, 0xbd, 0xd9, 0x94, 0x30, 0x3e,
  0xcf, 0xff, 0x64, 0xbd, 0xf5, 0x22, 0x87, 0xbd, 0xda, 0x46, 0xa3, 0x3e,
  0x88, 0xd9, 0x08, 0x3c, 0xcb, 0xf4, 0x5c, 0x3e, 0x46, 0x8f, 0xb2, 0xbd,
  0x95, 0xb2, 0x22, 0x3d, 0xad, 0xef, 0xea, 0xbc, 0x07, 0xf5, 0xc8, 0x3d,
  0x4e, 0xf6, 0x84, 0x3e, 0x6a, 0xc9, 0x19, 0x3e, 0x42, 0xb6, 0x11, 0x3d,
  0x85, 0x98, 0x80, 0x3c, 0xe3, 0x2e, 0xfe, 0x3d, 0x30, 0x3f, 0xcf, 0x3d,
  0xc8, 0x54, 0xf1, 0xbd, 0xc1, 0x12, 0x48, 0xbe, 0x33, 0xb7, 0xf0, 0x3d,
  0xcb, 0xdb, 0xc9, 0xbd, 0x1c, 0x1b, 0x43, 0xbc, 0x00, 0x31, 0x38, 0xbc,
  0x61, 0x82, 0x40, 0x3d, 0x96, 0xdc, 0x66, 0xbd, 0x32, 0xc7, 0x47, 0xbe,
  0x5a, 0xf2, 0x1f, 0xbd, 0x35, 0x2e, 0xf5, 0xbb, 0x91, 0x1c, 0xfa, 0x3d,
  0x84, 0xf6, 0x7a, 0xbd, 0x1e, 0x53, 0x1c, 0x3e, 0x37, 0x16, 0xd4, 0xbd,
  0x8d, 0x26, 0x23, 0xbe, 0xab, 0x88, 0x1d, 0xbe, 0x29, 0x64, 0x6a, 0xbd,
  0xb5, 0xfa, 0x72, 0xbd, 0x87, 0xb0, 0x8e, 0x3d, 0xb5, 0x53, 0x59, 0x3d,
  0x87, 0xb6, 0xa9, 0x3d, 0x73, 0x8e, 0xa3, 0xbe, 0x69, 0xc0, 0x7e, 0xbe,
  0xb7, 0xa6, 0x0e, 0x3e, 0x77, 0x1b, 0x6e, 0xbe, 0xc8, 0xa4, 0xeb, 0x3d,
  0x12, 0xdc, 0x55, 0x3e, 0xa2, 0x36, 0x63, 0xbe, 0x13, 0xb6, 0x09, 0x3e,
  0xcf, 0xbf, 0xdf, 0xbd, 0x90, 0x2d, 0x25, 0xbe, 0x0b, 0x03, 0x3f, 0xbe,
  0xf4, 0x92, 0x32, 0xbe, 0xcc, 0x18, 0xc0, 0xbd, 0xad, 0xa3, 0x68, 0xbd,
  0xb3, 0x3f, 0xd5, 0xbc, 0x1e, 0xc9, 0xef, 0x3b, 0x9e, 0x47, 0x55, 0x3a,
  0x87, 0x46, 0x14, 0xbe, 0x0e, 0x12, 0x01, 0x3e, 0x74, 0xa7, 0x74, 0xbe,
  0x57, 0xd0, 0xd6, 0x3d, 0xbb, 0x70, 0x8a, 0xbe, 0xbb, 0x1d, 0xa8, 0x3d,
  0x56, 0x67, 0x0d, 0x3e, 0x37, 0xff, 0xf6, 0xbd, 0x62, 0xb0, 0x4c, 0xbd,
  0x91, 0x71, 0x8e, 0xbe, 0x1a, 0xfa, 0xe4, 0xbd, 0xb4, 0x97, 0xda, 0xbd,
  0x49, 0xad, 0xdd, 0x3c, 0x2a, 0x70, 0xf9, 0x3d, 0x8e, 0xc6, 0x9b, 0xbe,
  0x6b, 0x9d, 0xa6, 0xbe, 0x9b, 0xec, 0xfe, 0xbd, 0xde, 0x1c, 0x90, 0xbe,
  0x7c, 0xf3, 0x06, 0xbd, 0x9a, 0x1a, 0x4c, 0xbd, 0xc5, 0x5b, 0x55, 0xbe,
  0x01, 0xd2, 0x95, 0x3c, 0xb8, 0x7c, 0x8a, 0x3e, 0xdd, 0x73, 0x4e, 0xbe,
  0x22, 0x54, 0x45, 0x3e, 0x64, 0xbf, 0x3c, 0xba, 0x75, 0x29, 0x69, 0x3d,
  0x4a, 0x90, 0x7d, 0x3e, 0xce, 0xeb, 0x54, 0xbc, 0x9e, 0x11, 0x67, 0x3e,
  0x91, 0x10, 0x4a, 0xbe, 0xb7, 0x61, 0x2e, 0x3d, 0xf0, 0xe4, 0x53, 0x3e,
  0x07, 0x7e, 0xcc, 0x3d, 0x32, 0xd9, 0xbc, 0x3a, 0x9a, 0x58, 0xd5, 0xbc,
  0xe7, 0x08, 0x27, 0xbe, 0x19, 0xe9, 0xe2, 0x3d, 0x45, 0x0e, 0x22, 0x3e,
  0x5c, 0x1d, 0x1f, 0x3d, 0xe8, 0xaf, 0x84, 0x3d, 0x26, 0x81, 0x01, 0xbe,
  0x61, 0x27, 0x0d, 0x3e, 0x57, 0xbc, 0x90, 0xbc, 0xa1, 0x81, 0x41, 0x3e,
  0xb1, 0xa4, 0x40, 0x3e, 0x1c, 0x04, 0x0d, 0x3e, 0x9e, 0x3b, 0x2d, 0xbd,
  0xaa, 0xbd, 0x1e, 0x3e, 0x7b, 0x1c, 0xc2, 0xbb, 0x66, 0x27, 0xd9, 0xbc,
  0x68, 0x0a, 0x65, 0xbe, 0x0c, 0xad, 0x14, 0xbe, 0x52, 0x0a, 0xd7, 0xbc,
  0x8d, 0xb4, 0x0c, 0x3e, 0x5c, 0x89, 0x44, 0x3e, 0xed, 0x02, 0x38, 0xbe,
  0xa5, 0xaf, 0xed, 0x3d, 0x19, 0x19, 0xc1, 0xbd, 0x23, 0xef, 0x12, 0xbd,
  0x3a, 0xcb, 0x6e, 0x3c, 0x81, 0x55, 0x57, 0x3d, 0xf0, 0x58, 0x69, 0xbe,
  0xa2, 0x6d, 0x41, 0xbe, 0x3b, 0x41, 0x18, 0x3e, 0x22, 0x3f, 0x1a, 0x3e,
  0xf2, 0xdd, 0x2b, 0xbe, 0x93, 0x38, 0x32, 0xbe, 0xa5, 0x22, 0x82, 0xbe,
  0x8b, 0x1b, 0xfc, 0x3d, 0xb5, 0x21, 0xf1, 0x3d, 0x9e, 0x26, 0x4e, 0xbe,
  0xee, 0xe9, 0x89, 0xbd, 0x26, 0x3f, 0xc1, 0x3d, 0xff, 0x05, 0x22, 0x3c,
  0x9a, 0x5b, 0x2e, 0xbe, 0x63, 0x62, 0x62, 0xbe, 0x85, 0xe8, 0x0e, 0xbe,
  0x3f, 0xa0, 0xce, 0xbc, 0xf1, 0xb7, 0x3d, 0x3e, 0xa1, 0x0e, 0x53, 0x3d,
  0x51, 0xc1, 0xd5, 0xbc, 0xf6, 0x62, 0x5c, 0xbe, 0x2c, 0xa9, 0x26, 0xbe,
  0x07, 0x24, 0x77, 0xbd, 0xb0, 0xd6, 0xa2, 0x3e, 0xda, 0x16, 0x9f, 0x3e,
  0x1f, 0x58, 0x19, 0x3c, 0xa9, 0xd6, 0xe9, 0x3d, 0x60, 0x92, 0x71, 0xbd,
  0x7f, 0xa6, 0x8e, 0x3d, 0x97, 0xd6, 0x0d, 0x3e, 0x20, 0x93, 0x03, 0xbe,
  0x78, 0x02, 0x88, 0x3e, 0x79, 0xa6, 0xac, 0x3e, 0x65, 0xce, 0x61, 0x3e,
  0x5b, 0x9e, 0x97, 0xbc, 0xa8, 0x49, 0xb9, 0x3d, 0x44, 0xb5, 0x6c, 0x3e,
  0x96, 0xb6, 0xef, 0xbd, 0x69, 0xd3, 0x09, 0x3e, 0x56, 0xb1, 0x41, 0x3e,
  0x4a, 0x5a, 0xe4, 0xbd, 0x85, 0xfd, 0xb5, 0xbc, 0xe9, 0xb5, 0x24, 0xbb,
  0x2b, 0xcb, 0xd3, 0x3d, 0xb1, 0x86, 0xf7, 0x3d, 0xa2, 0x0f, 0x54, 0xbd,
  0x38, 0x2d, 0x28, 0xbd, 0x16, 0x16, 0xb2, 0xbc, 0x79, 0x42, 0x0a, 0xbe,
  0x11, 0x31, 0x45, 0xbe, 0x28, 0xc9, 0x0f, 0xbe, 0x1a, 0x3a, 0xcf, 0xbc,
  0x48, 0x35, 0x39, 0x3e, 0x61, 0xf1, 0x5b, 0x3c, 0xf8, 0xb7, 0x95, 0xbe,
  0x10, 0x0c, 0x78, 0xbc, 0x10, 0x87, 0x31, 0xbe, 0xc5, 0x0d, 0x76, 0x3e,
  0x56, 0xe5, 0x69, 0xbd, 0x6e, 0x2c, 0xd9, 0xbc, 0x8c, 0xec, 0x25, 0x3e,
  0x82, 0x59, 0x25, 0x3d, 0xc2, 0xed, 0xc2, 0x3d, 0x6b, 0x29, 0x20, 0x3e,
  0xed, 0xb0, 0xa8, 0x3d, 0xd8, 0x66, 0x2d, 0x3e, 0xbe, 0xce, 0x5f, 0xbd,
  0xc6, 0xd5, 0xb7, 0xb8, 0x80, 0xad, 0x55, 0xbd, 0x97, 0x28, 0x07, 0xbe,
  0x50, 0xba, 0xb5, 0x3b, 0xc7, 0x1f, 0x7d, 0xbd, 0xa2, 0x47, 0x42, 0x3e,
  0xed, 0x78, 0xf9, 0xbd, 0x38, 0x4e, 0x17, 0x3e, 0x78, 0x77, 0x3f, 0x3e,
  0x33, 0x2d, 0x12, 0x3d, 0xe6, 0xfd, 0xa0, 0x3c, 0x15, 0xd6, 0x11, 0x3e,
  0xa4, 0xaf, 0x0e, 0x3d, 0xf8, 0x09, 0xca, 0x3d, 0xfd, 0xef, 0x53, 0x3c,
  0x76, 0xbe, 0x08, 0x3e, 0x66, 0xb3, 0x43, 0x3e, 0xc4, 0xe6, 0x66, 0xbd,
  0x69, 0xb9, 0x9b, 0xbc, 0x55, 0x07, 0x26, 0x3d, 0xae, 0xf8, 0xff, 0xff,
  0x04, 0x00, 0x00, 0x00, 0x28, 0x00, 0x00, 0x00, 0xc0, 0x61, 0x56, 0x3e,
  0xa6, 0x99, 0xf9, 0x3d, 0x01, 0x0a, 0x76, 0x3e, 0x0d, 0xb8, 0x8f, 0x3d,
  0x65, 0x5c, 0x59, 0x3e, 0xde, 0xfd, 0x6f, 0x3e, 0x4f, 0xc9, 0x25, 0x3e,
  0xfe, 0xa6, 0x3f, 0x3e, 0xbe, 0xf5, 0xd1, 0x3d, 0x10, 0x52, 0x63, 0x3e,
  0xe2, 0xf8, 0xff, 0xff, 0x04, 0x00, 0x00, 0x00, 0x28, 0x00, 0x00, 0x00,
  0xb6, 0x78, 0xbb, 0x3d, 0x73, 0xed, 0xe4, 0x3c, 0x7b, 0x48, 0xb8, 0xbd,
  0xda, 0xea, 0xcd, 0xbb, 0x5d, 0x0c, 0x6e, 0x3d, 0x3b, 0xa6, 0x9e, 0x3d,
  0xde, 0x52, 0x40, 0xbd, 0x0a, 0x5c, 0x1f, 0xbd, 0xd6, 0xdc, 0x83, 0x3d,
  0xba, 0x08, 0x24, 0xbd, 0x16, 0xf9, 0xff, 0xff, 0x04, 0x00, 0x00, 0x00,
  0x28, 0x00, 0x00, 0x00, 0x1e, 0xa4, 0x92, 0x3f, 0x06, 0x45, 0x8b, 0x3f,
  0x42, 0xcd, 0x91, 0x3f, 0x55, 0x30, 0x8d, 0x3f, 0x9c, 0x25, 0x8f, 0x3f,
  0xf8, 0xd6, 0x94, 0x3f, 0x4b, 0x26, 0x8a, 0x3f, 0x75, 0x5b, 0x8b, 0x3f,
  0x3c, 0x78, 0x87, 0x3f, 0x5c, 0x3d, 0x99, 0x3f, 0x4a, 0xf9, 0xff, 0xff,
  0x04, 0x00, 0x00, 0x00, 0x28, 0x00, 0x00, 0x00, 0x9a, 0x61, 0x0a, 0x3e,
  0x3a, 0xef, 0xc9, 0x3d, 0xbe, 0x00, 0x57, 0x3e, 0x54, 0x69, 0xa7, 0x3c,
  0x60, 0x71, 0x15, 0x3e, 0x59, 0xb0, 0x43, 0x3e, 0x2c, 0x09, 0x41, 0x3d,
  0x37, 0x2b, 0x06, 0x3e, 0x63, 0xae, 0x1c, 0xbd, 0x78, 0xfb, 0x33, 0x3e,
  0x7e, 0xf9, 0xff, 0xff, 0x04, 0x00, 0x00, 0x00, 0x90, 0x01, 0x00, 0x00,
  0x81, 0x32, 0xfc, 0x3d, 0x95, 0x92, 0x62, 0x3d, 0x28, 0x74, 0x94, 0xbe,
  0xce, 0x88, 0x05, 0xbe, 0x04, 0x66, 0x4a, 0xbd, 0xc9, 0xa9, 0x69, 0xbe,
  0x4c, 0xc3, 0x9e, 0x3e, 0x58, 0xb1, 0x5c, 0xbe, 0x8b, 0x6c, 0xab, 0x3e,
  0x9b, 0xef, 0x71, 0x3c, 0x07, 0x1b, 0x98, 0xbe, 0x3c, 0x17, 0x0c, 0x3e,
  0x00, 0xff, 0xea, 0x3d, 0xec, 0x12, 0xe4, 0xbd, 0xde, 0xb8, 0xee, 0xbd,
  0x4c, 0x85, 0x08, 0xbd, 0x73, 0x8b, 0x07, 0x3e, 0x1d, 0x53, 0xd4, 0x3d,
  0x41, 0x51, 0xc6, 0x3a, 0x3f, 0x3a, 0x16, 0xbd, 0x1b, 0xa8, 0x82, 0x3e,
  0xb1, 0x5d, 0x0b, 0xbe, 0x41, 0x17, 0x85, 0xbe, 0x8e, 0xf3, 0x5d, 0xbe,
  0xb8, 0xe5, 0x71, 0x3e, 0x33, 0x29, 0xa0, 0xbd, 0x2c, 0xb7, 0xe5, 0x3c,
  0xfe, 0x7f, 0x53, 0xbe, 0x4a, 0xc8, 0x55, 0x3e, 0x6b, 0x0a, 0x1e, 0xbe,
  0xd6, 0x86, 0x28, 0xbe, 0x1c, 0x87, 0xcf, 0xbd, 0xea, 0xf5, 0x07, 0x3e,
  0x62, 0x3b, 0x80, 0xbe, 0xaf, 0x2e, 0xa7, 0xbe, 0xfb, 0xd1, 0x38, 0xbe,
  0x7d, 0x3c, 0x1a, 0xbe, 0x2a, 0x03, 0x16, 0x3d, 0xb3, 0x2c, 0x87, 0x3e,
  0xc9, 0xb3, 0xf2, 0x3d, 0x0a, 0xea, 0x3b, 0x3d, 0x1d, 0xb0, 0x20, 0x3e,
  0xb7, 0x24, 0x28, 0xbe, 0x2c, 0x45, 0x65, 0xbe, 0xd9, 0xae, 0x31, 0xbe,
  0xe7, 0x19, 0x09, 0x3e, 0x3a, 0xe4, 0xc7, 0x3c, 0x6d, 0xda, 0x8e, 0x3d,
  0xe7, 0xf2, 0x0d, 0x3e, 0xca, 0x04, 0x85, 0xbd, 0x43, 0xca, 0x56, 0xbd,
  0xc1, 0xeb, 0xdc, 0xbd, 0x3c, 0x57, 0x66, 0xbd, 0x65, 0xae, 0xc1, 0xbe,
  0xd0, 0xc8, 0x1b, 0x3e, 0x00, 0x01, 0xa2, 0x3d, 0x83, 0x39, 0xb5, 0x3d,
  0xd9, 0xc6, 0x12, 0xbe, 0x2b, 0xc1, 0x73, 0x3e, 0x0e, 0xd0, 0x3e, 0xbe,
  0x16, 0x8f, 0xf4, 0xbd, 0xb5, 0x39, 0x45, 0xbe, 0xa6, 0x84, 0x93, 0xbe,
  0x7a, 0xb6, 0xa8, 0xbe, 0xf5, 0x32, 0x07, 0xbe, 0x1a, 0x19, 0x12, 0xbe,
  0xee, 0x15, 0x96, 0x3e, 0x7e, 0x66, 0x8a, 0x3e, 0xb0, 0xf4, 0x88, 0x3e,
  0x03, 0xe5, 0xa8, 0xbe, 0x7e, 0xf3, 0x3d, 0x3d, 0x07, 0x10, 0x00, 0xbe,
  0x05, 0x99, 0xc7, 0xbe, 0x3b, 0x02, 0x73, 0xbe, 0xf6, 0xe8, 0x95, 0xbd,
  0x31, 0x04, 0x6d, 0x3e, 0xc6, 0xd7, 0x7d, 0x3e, 0x3c, 0x39, 0x57, 0xbe,
  0xee, 0xa8, 0xe9, 0x3d, 0x15, 0x79, 0x5f, 0xbd, 0xad, 0xe2, 0x2b, 0xbe,
  0x5d, 0x5b, 0x7e, 0x3e, 0x7c, 0xba, 0x14, 0xbe, 0x27, 0xcc, 0xff, 0x3d,
  0x6a, 0xf4, 0xa6, 0xbe, 0x1e, 0x83, 0xc7, 0xbc, 0x29, 0x4e, 0xa6, 0xbd,
  0x00, 0x1a, 0x49, 0x3d, 0x15, 0xaa, 0xc3, 0x3d, 0x0a, 0x79, 0x5c, 0x3d,
  0x6e, 0x89, 0x67, 0x3e, 0x7a, 0x88, 0xce, 0xbc, 0x98, 0xdd, 0x29, 0xbe,
  0xa1, 0x54, 0xb2, 0xbe, 0x6b, 0xb0, 0x2d, 0x3c, 0x99, 0xf8, 0x59, 0x3e,
  0x57, 0x6e, 0x78, 0xbd, 0x50, 0x68, 0x89, 0x3e, 0xd3, 0xc5, 0x05, 0x3f,
  0x99, 0x3c, 0xf1, 0xbc, 0x1a, 0xfb, 0xff, 0xff, 0x04, 0x00, 0x00, 0x00,
  0x90, 0x01, 0x00, 0x00, 0xe8, 0xe0, 0xde, 0x3e, 0x95, 0xe5, 0xfc, 0x3e,
  0x25, 0x62, 0x20, 0xbd, 0x78, 0xa1, 0x82, 0xbe, 0xb9, 0x5b, 0x8e, 0x3e,
  0xe8, 0x40, 0x0f, 0xbe, 0xac, 0xab, 0x8c, 0xbe, 0xbf, 0xd7, 0xd6, 0xbd,
  0x6f, 0xbc, 0xcc, 0xbc, 0xd5, 0x2d, 0x13, 0xbe, 0x8e, 0xbc, 0xbe, 0x3e,
  0x91, 0x87, 0x97, 0x3e, 0x2d, 0x4b, 0x25, 0x3c, 0xae, 0x45, 0xbe, 0x3d,
  0xce, 0x9e, 0x75, 0xbc, 0xcf, 0xd6, 0xf1, 0xbb, 0x35, 0x5d, 0xf9, 0xbd,
  0xd6, 0x55, 0x4b, 0xbe, 0x9f, 0xb2, 0x2d, 0xbe, 0x98, 0xc4, 0xe8, 0xbd,
  0x87, 0xf0, 0x44, 0xbe, 0xc5, 0x8a, 0x8f, 0xbe, 0xe5, 0xb2, 0x6b, 0xbe,
  0xb5, 0xd3, 0xb0, 0x3e, 0x9b, 0x28, 0x87, 0xbe, 0xc3, 0xfb, 0x8d, 0xbe,
  0x31, 0xb8, 0xf6, 0x3d, 0x5e, 0xab, 0x8c, 0x3e, 0xfc, 0x74, 0x27, 0x3d,
  0x95, 0xc5, 0x12, 0xbe, 0x49, 0xfc, 0xae, 0x3d, 0x9b, 0x17, 0x85, 0x3e,
  0x54, 0x99, 0x57, 0xbc, 0x03, 0x8b, 0x5d, 0x3e, 0xe5, 0xf8, 0x83, 0x3d,
  0x8c, 0x0c, 0x7e, 0xbb, 0xf4, 0x25, 0x33, 0x3e, 0xe3, 0x87, 0xa8, 0xbe,
  0x9d, 0x2c, 0x46, 0xbe, 0x63, 0x3d, 0x45, 0x3c, 0x5a, 0x42, 0x8f, 0xbe,
  0x0d, 0x16, 0x14, 0x3e, 0x56, 0x4b, 0x80, 0xbb, 0x9f, 0x5b, 0x56, 0xbd,
  0x16, 0x01, 0x83, 0x3e, 0xbf, 0x06, 0x2b, 0x3e, 0x62, 0xa3, 0x52, 0xbd,
  0x7d, 0x31, 0x18, 0xbe, 0x44, 0x6c, 0x4f, 0x3e, 0x74, 0x54, 0x68, 0xbe,
  0x70, 0xb4, 0x82, 0x3b, 0x5b, 0xd5, 0x5e, 0x3d, 0xb5, 0x5f, 0x4e, 0xbd,
  0xad, 0xfe, 0x65, 0xbd, 0xea, 0x46, 0xe8, 0x3e, 0xb7, 0x21, 0x8f, 0x3d,
  0x07, 0x9f, 0xa4, 0xbd, 0xa9, 0x38, 0xcd, 0xbd, 0x4d, 0x77, 0xed, 0xbe,
  0x9f, 0x31, 0xd4, 0xbe, 0x87, 0x33, 0xc7, 0x3c, 0xa6, 0x42, 0x48, 0xbe,
  0xc5, 0xb3, 0x41, 0x3e, 0xde, 0x67, 0x62, 0x3e, 0x81, 0x46, 0xae, 0xbd,
  0x74, 0xf5, 0xaa, 0xbd, 0x56, 0xc9, 0x09, 0x3e, 0x91, 0x1c, 0xa5, 0xbe,
  0x7b, 0x34, 0x6a, 0x3e, 0xc4, 0x09, 0x82, 0x3e, 0x0d, 0x1e, 0x55, 0xbe,
  0xa6, 0x60, 0x88, 0xbe, 0xe5, 0x5e, 0x3a, 0x3e, 0xce, 0x02, 0xc5, 0xbd,
  0x0b, 0x6a, 0xdd, 0xbd, 0xac, 0xfd, 0x63, 0xbe, 0x68, 0x5a, 0x6c, 0x3e,
  0x10, 0x5a, 0x20, 0x3d, 0xbb, 0x97, 0x57, 0x3e, 0xe5, 0x49, 0xa0, 0x3e,
  0xf1, 0xc0, 0xca, 0x3b, 0xfe, 0x0b, 0xf1, 0xbd, 0x96, 0xb9, 0x7c, 0xbe,
  0x8a, 0x38, 0x33, 0xbd, 0x7c, 0xc9, 0x50, 0x3e, 0xf9, 0xc5, 0x55, 0xbe,
  0x5d, 0x47, 0xbc, 0xbd, 0xfa, 0x12, 0x83, 0xbe, 0xa8, 0x04, 0xcf, 0x3d,
  0x8c, 0x89, 0x12, 0x3e, 0xcd, 0xaa, 0xad, 0xbd, 0x81, 0x58, 0xd3, 0xbc,
  0x99, 0x3c, 0xa8, 0x3e, 0xa0, 0x2c, 0x0c, 0x3e, 0x79, 0xa3, 0x36, 0xbe,
  0x8a, 0x51, 0x0d, 0xbe, 0x3e, 0xaa, 0x03, 0x3e, 0x53, 0x3a, 0x0d, 0x3d,
  0xbd, 0xdc, 0x3d, 0xbe, 0x03, 0x18, 0x5d, 0x3e, 0xb6, 0xfc, 0xff, 0xff,
  0x04, 0x00, 0x00, 0x00, 0x90, 0x01, 0x00, 0x00, 0xdc, 0x2d, 0x0e, 0x3e,
  0xcf, 0xee, 0x99, 0x3d, 0xf4, 0xcc, 0xe8, 0x3d, 0x5f, 0xb5, 0xc5, 0xbd,
  0xc0, 0xdf, 0xda, 0x3d, 0xc3, 0x79, 0x1b, 0x3e, 0x7b, 0x52, 0x15, 0xbd,
  0xb9, 0xf6, 0x99, 0xbd, 0x3f, 0x42, 0xdf, 0x3e, 0xc4, 0xcd, 0x7a, 0xbd,
  0x98, 0x10, 0x53, 0x3e, 0xf4, 0x50, 0x31, 0xbc, 0xb5, 0x9f, 0x44, 0x3e,
  0x1b, 0xcf, 0x8e, 0xbd, 0x25, 0x83, 0x64, 0xbe, 0xf5, 0x85, 0x9f, 0x3e,
  0x82, 0xda, 0x85, 0xbd, 0x86, 0x39, 0x5a, 0xbd, 0x0f, 0xbe, 0xe3, 0x3d,
  0xf2, 0xec, 0x83, 0xbe, 0x42, 0x35, 0x8c, 0x3d, 0x2f, 0x2b, 0x7b, 0xbd,
  0x5c, 0x5c, 0x24, 0xbd, 0x06, 0x99, 0x2b, 0x3e, 0xa8, 0xe7, 0xc7, 0x3d,
  0x71, 0x1b, 0x90, 0x3e, 0xc1, 0xc3, 0x52, 0xbe, 0x55, 0x91, 0xb1, 0x3d,
  0x63, 0x29, 0x48, 0xbd, 0x0f, 0xc9, 0xf0, 0x3d, 0x0e, 0x45, 0x1e, 0xbc,
  0x3b, 0x45, 0x81, 0x3d, 0x2b, 0xa3, 0x78, 0xbe, 0x58, 0x4d, 0x84, 0xbe,
  0xb8, 0x1e, 0x52, 0xbd, 0x4c, 0xba, 0x23, 0xbe, 0xd5, 0x06, 0x25, 0x3e,
  0xb0, 0x65, 0x34, 0xbe, 0x0c, 0x41, 0x4e, 0x3c, 0x6c, 0x84, 0x92, 0x3c,
  0xdb, 0xdf, 0x8f, 0xbe, 0x01, 0x79, 0x5b, 0xbd, 0x2f, 0x56, 0x8d, 0x3d,
  0x2f, 0x22, 0x58, 0xbe, 0xba, 0x3e, 0x4a, 0xbe, 0xbc, 0xc9, 0xb0, 0x3e,
  0xf6, 0x5e, 0x1f, 0x3d, 0x5a, 0xa4, 0xd8, 0xbe, 0x99, 0x88, 0xc6, 0x3d,
  0xb8, 0x55, 0x81, 0xbe, 0xdf, 0x9f, 0xcb, 0xbd, 0xb9, 0xb7, 0xcb, 0x3d,
  0x56, 0x4d, 0x30, 0xbe, 0x97, 0xba, 0xc8, 0x3d, 0xb7, 0xc5, 0xa9, 0xbd,
  0x1c, 0x0e, 0x79, 0x3d, 0xae, 0x90, 0x25, 0x3e, 0xb7, 0x2e, 0x5a, 0xbe,
  0xca, 0x71, 0x82, 0x3e, 0xbb, 0xd8, 0x81, 0x3d, 0x8d, 0x1b, 0xa6, 0x3c,
  0xd1, 0xab, 0xf8, 0xbc, 0x56, 0x13, 0x3d, 0xbe, 0xa9, 0x22, 0x42, 0xbe,
  0xdf, 0xa6, 0xe9, 0xbd, 0x3a, 0xbd, 0x5c, 0xbe, 0xe5, 0xf8, 0xb0, 0x3e,
  0xb7, 0x61, 0xc7, 0x3c, 0xf6, 0xd6, 0x21, 0x3e, 0xc2, 0xb3, 0x1e, 0x3b,
  0xa8, 0x45, 0x2f, 0x3e, 0x50, 0xdc, 0x33, 0xbd, 0x2b, 0xca, 0xee, 0xbd,
  0x6e, 0x9d, 0xfa, 0xbb, 0x3a, 0xa6, 0xf8, 0x3c, 0x13, 0x5d, 0x05, 0x3e,
  0x40, 0x9f, 0x9f, 0xbb, 0x47, 0xaa, 0x23, 0xbe, 0x13, 0xda, 0xfd, 0x3d,
  0x72, 0x9c, 0x74, 0x3e, 0xf9, 0x36, 0xa6, 0xbd, 0xeb, 0xe6, 0x32, 0xbe,
  0x9d, 0x85, 0xf3, 0x3d, 0xa0, 0xc9, 0x90, 0xbe, 0x4c, 0x06, 0x92, 0xbe,
  0xad, 0x70, 0xb2, 0xbe, 0x90, 0xa8, 0xa0, 0xbc, 0x0b, 0xdd, 0x38, 0x3e,
  0x2d, 0xc5, 0xa2, 0x3e, 0xac, 0x47, 0x8e, 0xbe, 0x60, 0x76, 0x19, 0x3e,
  0x8a, 0x28, 0x7f, 0xbe, 0x65, 0x0d, 0xc9, 0xbe, 0x75, 0x1a, 0x12, 0xbe,
  0x21, 0x92, 0xe1, 0xbc, 0x76, 0x7f, 0x31, 0x3e, 0xe6, 0x4f, 0xbf, 0xbd,
  0xf7, 0x3c, 0xfb, 0xbc, 0x7d, 0x91, 0xce, 0x3a, 0x92, 0x06, 0xc3, 0x3d,
  0x52, 0xfe, 0xff, 0xff, 0x04, 0x00, 0x00, 0x00, 0x90, 0x01, 0x00, 0x00,
  0x2c, 0xf4, 0x80, 0x3d, 0x2b, 0x7e, 0xce, 0xbe, 0x81, 0xbe, 0x79, 0x3d,
  0x8e, 0xb3, 0xae, 0xbe, 0x35, 0xe0, 0x9e, 0xbe, 0x2d, 0x0c, 0x12, 0xbd,
  0x1b, 0x4f, 0x9b, 0x3c, 0xf1, 0x96, 0x82, 0x39, 0x97, 0xea, 0x03, 0x3e,
  0x90, 0x3a, 0x52, 0xbd, 0x02, 0x93, 0x87, 0x3e, 0xf3, 0x7e, 0x06, 0xbe,
  0x79, 0x56, 0x77, 0x3d, 0xaa, 0xa1, 0xc6, 0xbc, 0xc0, 0x4d, 0x2e, 0xbe,
  0x92, 0x91, 0x64, 0x3e, 0x63, 0x4e, 0x96, 0x3e, 0x64, 0x22, 0x8b, 0x3e,
  0x37, 0x6d, 0x10, 0xbd, 0x68, 0x19, 0x85, 0x3d, 0xd4, 0x1f, 0x6b, 0x3e,
  0x84, 0xd5, 0x93, 0xbb, 0x45, 0xeb, 0x30, 0xbd, 0x2c, 0x69, 0x4e, 0x3e,
  0x10, 0xdd, 0xaf, 0x3e, 0xe3, 0x9f, 0x52, 0x3d, 0xcc, 0x37, 0x0c, 0x3d,
  0x83, 0x86, 0x83, 0xbd, 0x25, 0xaa, 0xe8, 0x3e, 0xf2, 0x90, 0x7a, 0xbe,
  0x79, 0x4b, 0xf3, 0x3d, 0x00, 0x79, 0xb2, 0xbe, 0x48, 0x75, 0xc2, 0xbb,
  0x42, 0x66, 0x65, 0xbe, 0x5e, 0x22, 0x6f, 0x3e, 0xac, 0x25, 0xcd, 0xbb,
  0xe8, 0xe8, 0x80, 0x3a, 0x71, 0xd1, 0x4b, 0xbc, 0x47, 0x4a, 0xae, 0x3d,
  0xf4, 0x18, 0x06, 0x3e, 0x92, 0xb7, 0x0e, 0x3e, 0xdb, 0x51, 0xe2, 0xbd,
  0x80, 0x55, 0xfd, 0x3d, 0x38, 0x39, 0x7a, 0xbe, 0xb6, 0xb1, 0x12, 0xbe,
  0x45, 0xff, 0x91, 0x3c, 0x66, 0xae, 0x9a, 0x3e, 0x2a, 0x04, 0xae, 0xbd,
  0xe7, 0x13, 0x92, 0xbc, 0x66, 0x0d, 0x82, 0xbe, 0xc1, 0x76, 0x06, 0x3e,
  0x84, 0xaa, 0x7a, 0xbe, 0x5f, 0x9d, 0x1a, 0x3d, 0x83, 0xed, 0x86, 0x3c,
  0xdc, 0x16, 0x0e, 0x3e, 0x05, 0x54, 0x8a, 0xbd, 0xf1, 0x2f, 0xab, 0x3d,
  0x59, 0x5c, 0xce, 0x3d, 0xee, 0x48, 0xae, 0x3d, 0x91, 0x16, 0xc4, 0xbd,
  0xe5, 0x65, 0x0c, 0xbe, 0xe6, 0xdb, 0x03, 0x3c, 0xd4, 0x7d, 0x03, 0xbd,
  0x17, 0xa3, 0xb0, 0xbe, 0x6f, 0x46, 0x6d, 0xbe, 0x45, 0x27, 0x3c, 0xbd,
  0xb2, 0xff, 0x17, 0x3e, 0x4b, 0xb5, 0x41, 0xbd, 0xd0, 0xd0, 0x5e, 0x3e,
  0x99, 0xff, 0x2a, 0xbe, 0x5c, 0x21, 0x7e, 0xbe, 0xc1, 0x70, 0xba, 0x3d,
  0x7a, 0x9b, 0x47, 0x3d, 0x18, 0x26, 0x87, 0xbe, 0x90, 0xf7, 0x94, 0x3d,
  0x90, 0x2a, 0x1a, 0x3e, 0x28, 0xee, 0x6f, 0xbe, 0xee, 0xd7, 0x96, 0xbb,
  0x32, 0x8a, 0xbf, 0x3d, 0x7f, 0x8b, 0x68, 0x3e, 0x00, 0x31, 0x29, 0xbe,
  0xb3, 0x28, 0xce, 0xbe, 0xb0, 0x72, 0x5e, 0x3e, 0x46, 0xd3, 0x41, 0x3e,
  0xb7, 0x2d, 0x0a, 0xbf, 0x5d, 0xf1, 0xcc, 0xbe, 0xa0, 0xbc, 0x75, 0xbd,
  0x4d, 0x53, 0x88, 0xbc, 0x49, 0x1d, 0x67, 0xbd, 0xf9, 0x19, 0x35, 0x3e,
  0x12, 0xe8, 0x7f, 0xbe, 0x9a, 0x9f, 0x87, 0xbc, 0x5b, 0x10, 0x68, 0x3e,
  0xc1, 0x02, 0x36, 0x3d, 0x02, 0xfe, 0x42, 0xbd, 0xba, 0x63, 0x90, 0x3c,
  0x89, 0x5c, 0xc6, 0x3e, 0x13, 0x56, 0x8d, 0x3d, 0xc3, 0x7c, 0x62, 0x3e,
  0x91, 0x19, 0x05, 0xbe, 0xee, 0xff, 0xff, 0xff, 0x04, 0x00, 0x00, 0x00,
  0x04, 0x00, 0x00, 0x00, 0x5f, 0xb5, 0xa5, 0x3d, 0x00, 0x00, 0x06, 0x00,
  0x08, 0x00, 0x04, 0x00, 0x06, 0x00, 0x00, 0x00, 0x04, 0x00, 0x00, 0x00,
  0x28, 0x00, 0x00, 0x00, 0x00, 0x00, 0x00, 0x00, 0x00, 0x00, 0x00, 0x00,
  0x00, 0x00, 0x00, 0x00, 0x00, 0x00, 0x00, 0x00, 0x00, 0x00, 0x00, 0x00,
  0x00, 0x00, 0x00, 0x00, 0x00, 0x00, 0x00, 0x00, 0x00, 0x00, 0x00, 0x00,
  0x00, 0x00, 0x00, 0x00, 0x00, 0x00, 0x00, 0x00, 0x70, 0xf7, 0xff, 0xff,
  0x74, 0xf7, 0xff, 0xff, 0x0f, 0x00, 0x00, 0x00, 0x4d, 0x4c, 0x49, 0x52,
  0x20, 0x43, 0x6f, 0x6e, 0x76, 0x65, 0x72, 0x74, 0x65, 0x64, 0x2e, 0x00,
  0x01, 0x00, 0x00, 0x00, 0x14, 0x00, 0x00, 0x00, 0x00, 0x00, 0x0e, 0x00,
  0x18, 0x00, 0x14, 0x00, 0x10, 0x00, 0x0c, 0x00, 0x08, 0x00, 0x04, 0x00,
  0x0e, 0x00, 0x00, 0x00, 0x14, 0x00, 0x00, 0x00, 0x1c, 0x00, 0x00, 0x00,
  0xa4, 0x01, 0x00, 0x00, 0xa8, 0x01, 0x00, 0x00, 0xac, 0x01, 0x00, 0x00,
  0x04, 0x00, 0x00, 0x00, 0x6d, 0x61, 0x69, 0x6e, 0x00, 0x00, 0x00, 0x00,
  0x04, 0x00, 0x00, 0x00, 0xec, 0x00, 0x00, 0x00, 0x7c, 0x00, 0x00, 0x00,
  0x34, 0x00, 0x00, 0x00, 0x10, 0x00, 0x00, 0x00, 0x00, 0x00, 0x0a, 0x00,
  0x10, 0x00, 0x0c, 0x00, 0x08, 0x00, 0x04, 0x00, 0x0a, 0x00, 0x00, 0x00,
  0x0c, 0x00, 0x00, 0x00, 0x10, 0x00, 0x00, 0x00, 0x03, 0x00, 0x00, 0x00,
  0x01, 0x00, 0x00, 0x00, 0x17, 0x00, 0x00, 0x00, 0x01, 0x00, 0x00, 0x00,
  0x16, 0x00, 0x00, 0x00, 0xca, 0xff, 0xff, 0xff, 0x14, 0x00, 0x00, 0x00,
  0x00, 0x00, 0x00, 0x08, 0x10, 0x00, 0x00, 0x00, 0x14, 0x00, 0x00, 0x00,
  0x02, 0x00, 0x00, 0x00, 0x20, 0xf8, 0xff, 0xff, 0x01, 0x00, 0x00, 0x00,
  0x16, 0x00, 0x00, 0x00, 0x03, 0x00, 0x00, 0x00, 0x15, 0x00, 0x00, 0x00,
  0x0f, 0x00, 0x00, 0x00, 0x02, 0x00, 0x00, 0x00, 0x00, 0x00, 0x0e, 0x00,
  0x1a, 0x00, 0x14, 0x00, 0x10, 0x00, 0x0c, 0x00, 0x0b, 0x00, 0x04, 0x00,
  0x0e, 0x00, 0x00, 0x00, 0x24, 0x00, 0x00, 0x00, 0x00, 0x00, 0x00, 0x20,
  0x2c, 0x00, 0x00, 0x00, 0x30, 0x00, 0x00, 0x00, 0x01, 0x00, 0x00, 0x00,
  0x00, 0x00, 0x0e, 0x00, 0x10, 0x00, 0x0c, 0x00, 0x08, 0x00, 0x00, 0x00,
  0x00, 0x00, 0x04, 0x00, 0x0e, 0x00, 0x00, 0x00, 0x02, 0x00, 0x00, 0x00,
  0x05, 0x00, 0x00, 0x00, 0x05, 0x00, 0x00, 0x00, 0x01, 0x00, 0x00, 0x00,
  0x15, 0x00, 0x00, 0x00, 0x04, 0x00, 0x00, 0x00, 0x14, 0x00, 0x00, 0x00,
  0x10, 0x00, 0x00, 0x00, 0x11, 0x00, 0x00, 0x00, 0x12, 0x00, 0x00, 0x00,
  0x00, 0x00, 0x16, 0x00, 0x18, 0x00, 0x00, 0x00, 0x14, 0x00, 0x10, 0x00,
  0x0f, 0x00, 0x08, 0x00, 0x00, 0x00, 0x00, 0x00, 0x00, 0x00, 0x04, 0x00,
  0x16, 0x00, 0x00, 0x00, 0x14, 0x00, 0x00, 0x00, 0x1c, 0x00, 0x00, 0x00,
  0x00, 0x00, 0x00, 0x47, 0x20, 0x00, 0x00, 0x00, 0x24, 0x00, 0x00, 0x00,
  0x00, 0x00, 0x00, 0x00, 0x08, 0x00, 0x0c, 0x00, 0x0b, 0x00, 0x04, 0x00,
  0x08, 0x00, 0x00, 0x00, 0x00, 0x00, 0x20, 0x41, 0x00, 0x00, 0x00, 0x04,
  0x01, 0x00, 0x00, 0x00, 0x14, 0x00, 0x00, 0x00, 0x18, 0x00, 0x00, 0x00,
  0x00, 0x00, 0x00, 0x00, 0x0b, 0x00, 0x00, 0x00, 0x0c, 0x00, 0x00, 0x00,
  0x0d, 0x00, 0x00, 0x00, 0x0e, 0x00, 0x00, 0x00, 0x03, 0x00, 0x00, 0x00,
  0x04, 0x00, 0x00, 0x00, 0x05, 0x00, 0x00, 0x00, 0x06, 0x00, 0x00, 0x00,
  0xff, 0xff, 0xff, 0xff, 0xff, 0xff, 0xff, 0xff, 0xff, 0xff, 0xff, 0xff,
  0x07, 0x00, 0x00, 0x00, 0x08, 0x00, 0x00, 0x00, 0x09, 0x00, 0x00, 0x00,
  0x0a, 0x00, 0x00, 0x00, 0xff, 0xff, 0xff, 0xff, 0xff, 0xff, 0xff, 0xff,
  0x01, 0x00, 0x00, 0x00, 0x13, 0x00, 0x00, 0x00, 0xff, 0xff, 0xff, 0xff,
  0xff, 0xff, 0xff, 0xff, 0xff, 0xff, 0xff, 0xff, 0xff, 0xff, 0xff, 0xff,
  0x01, 0x00, 0x00, 0x00, 0x17, 0x00, 0x00, 0x00, 0x01, 0x00, 0x00, 0x00,
  0x00, 0x00, 0x00, 0x00, 0x18, 0x00, 0x00, 0x00, 0x80, 0x06, 0x00, 0x00,
  0x24, 0x06, 0x00, 0x00, 0xb8, 0x05, 0x00, 0x00, 0x78, 0x05, 0x00, 0x00,
  0x38, 0x05, 0x00, 0x00, 0xf8, 0x04, 0x00, 0x00, 0xb8, 0x04, 0x00, 0x00,
  0x7c, 0x04, 0x00, 0x00, 0x40, 0x04, 0x00, 0x00, 0x04, 0x04, 0x00, 0x00,
  0xc8, 0x03, 0x00, 0x00, 0x88, 0x03, 0x00, 0x00, 0x48, 0x03, 0x00, 0x00,
  0x04, 0x03, 0x00, 0x00, 0xc0, 0x02, 0x00, 0x00, 0x78, 0x02, 0x00, 0x00,
  0x34, 0x02, 0x00, 0x00, 0xd8, 0x01, 0x00, 0x00, 0x94, 0x01, 0x00, 0x00,
  0x50, 0x01, 0x00, 0x00, 0xf8, 0x00, 0x00, 0x00, 0xb4, 0x00, 0x00, 0x00,
  0x50, 0x00, 0x00, 0x00, 0x04, 0x00, 0x00, 0x00, 0xf6, 0xf9, 0xff, 0xff,
  0x00, 0x00, 0x00, 0x01, 0x10, 0x00, 0x00, 0x00, 0x10, 0x00, 0x00, 0x00,
  0x18, 0x00, 0x00, 0x00, 0x28, 0x00, 0x00, 0x00, 0xe0, 0xf9, 0xff, 0xff,
  0x19, 0x00, 0x00, 0x00, 0x53, 0x74, 0x61, 0x74, 0x65, 0x66, 0x75, 0x6c,
  0x50, 0x61, 0x72, 0x74, 0x69, 0x74, 0x69, 0x6f, 0x6e, 0x65, 0x64, 0x43,
  0x61, 0x6c, 0x6c, 0x3a, 0x30, 0x00, 0x00, 0x00, 0x02, 0x00, 0x00, 0x00,
  0x01, 0x00, 0x00, 0x00, 0x01, 0x00, 0x00, 0x00, 0x3e, 0xfa, 0xff, 0xff,
  0x00, 0x00, 0x00, 0x01, 0x10, 0x00, 0x00, 0x00, 0x10, 0x00, 0x00, 0x00,
  0x17, 0x00, 0x00, 0x00, 0x40, 0x00, 0x00, 0x00, 0x28, 0xfa, 0xff, 0xff,
  0x30, 0x00, 0x00, 0x00, 0x73, 0x65, 0x71, 0x75, 0x65, 0x6e, 0x74, 0x69,
  0x61, 0x6c, 0x2f, 0x64, 0x65, 0x6e, 0x73, 0x65, 0x2f, 0x4d, 0x61, 0x74,
  0x4d, 0x75, 0x6c, 0x3b, 0x73, 0x65, 0x71, 0x75, 0x65, 0x6e, 0x74, 0x69,
  0x61, 0x6c, 0x2f, 0x64, 0x65, 0x6e, 0x73, 0x65, 0x2f, 0x42, 0x69, 0x61,
  0x73, 0x41, 0x64, 0x64, 0x00, 0x00, 0x00, 0x00, 0x02, 0x00, 0x00, 0x00,
  0x01, 0x00, 0x00, 0x00, 0x01, 0x00, 0x00, 0x00, 0x9e, 0xfa, 0xff, 0xff,
  0x00, 0x00, 0x00, 0x01, 0x10, 0x00, 0x00, 0x00, 0x10, 0x00, 0x00, 0x00,
  0x16, 0x00, 0x00, 0x00, 0x20, 0x00, 0x00, 0x00, 0x88, 0xfa, 0xff, 0xff,
  0x11, 0x00, 0x00, 0x00, 0x74, 0x66, 0x6c, 0x2e, 0x73, 0x74, 0x72, 0x69,
  0x64, 0x65, 0x64, 0x5f, 0x73, 0x6c, 0x69, 0x63, 0x65, 0x00, 0x00, 0x00,
  0x02, 0x00, 0x00, 0x00, 0x01, 0x00, 0x00, 0x00, 0x0a, 0x00, 0x00, 0x00,
  0xde, 0xfa, 0xff, 0xff, 0x00, 0x00, 0x00, 0x01, 0x10, 0x00, 0x00, 0x00,
  0x10, 0x00, 0x00, 0x00, 0x15, 0x00, 0x00, 0x00, 0x30, 0x00, 0x00, 0x00,
  0xc8, 0xfa, 0xff, 0xff, 0x20, 0x00, 0x00, 0x00, 0x74, 0x66, 0x6c, 0x2e,
  0x75, 0x6e, 0x69, 0x64, 0x69, 0x72, 0x65, 0x63, 0x74, 0x69, 0x6f, 0x6e,
  0x61, 0x6c, 0x5f, 0x73, 0x65, 0x71, 0x75, 0x65, 0x6e, 0x63, 0x65, 0x5f,
  0x6c, 0x73, 0x74, 0x6d, 0x00, 0x00, 0x00, 0x00, 0x03, 0x00, 0x00, 0x00,
  0x01, 0x00, 0x00, 0x00, 0x14, 0x00, 0x00, 0x00, 0x0a, 0x00, 0x00, 0x00,
  0x8a, 0xfb, 0xff, 0xff, 0x00, 0x00, 0x01, 0x01, 0x0c, 0x00, 0x00, 0x00,
  0x0c, 0x00, 0x00, 0x00, 0x24, 0x00, 0x00, 0x00, 0x18, 0xfb, 0xff, 0xff,
  0x16, 0x00, 0x00, 0x00, 0x73, 0x65, 0x71, 0x75, 0x65, 0x6e, 0x74, 0x69,
  0x61, 0x6c, 0x2f, 0x6c, 0x73, 0x74, 0x6d, 0x2f, 0x7a, 0x65, 0x72, 0x6f,
  0x73, 0x31, 0x00, 0x00, 0x02, 0x00, 0x00, 0x00, 0x01, 0x00, 0x00, 0x00,
  0x0a, 0x00, 0x00, 0x00, 0x7e, 0xff, 0xff, 0xff, 0x00, 0x00, 0x00, 0x01,
  0x14, 0x00, 0x00, 0x00, 0x14, 0x00, 0x00, 0x00, 0x13, 0x00, 0x00, 0x00,
  0x00, 0x00, 0x00, 0x02, 0x20, 0x00, 0x00, 0x00, 0x60, 0xfb, 0xff, 0xff,
  0x10, 0x00, 0x00, 0x00, 0x61, 0x72, 0x69, 0x74, 0x68, 0x2e, 0x63, 0x6f,
  0x6e, 0x73, 0x74, 0x61, 0x6e, 0x74, 0x31, 0x34, 0x00, 0x00, 0x00, 0x00,
  0x01, 0x00, 0x00, 0x00, 0x03, 0x00, 0x00, 0x00, 0xbe, 0xff, 0xff, 0xff,
  0x00, 0x00, 0x00, 0x01, 0x14, 0x00, 0x00, 0x00, 0x14, 0x00, 0x00, 0x00,
  0x12, 0x00, 0x00, 0x00, 0x00, 0x00, 0x00, 0x02, 0x20, 0x00, 0x00, 0x00,
  0xa0, 0xfb, 0xff, 0xff, 0x10, 0x00, 0x00, 0x00, 0x61, 0x72, 0x69, 0x74,
  0x68, 0x2e, 0x63, 0x6f, 0x6e, 0x73, 0x74, 0x61, 0x6e, 0x74, 0x31, 0x33,
  0x00, 0x00, 0x00, 0x00, 0x01, 0x00, 0x00, 0x00, 0x03, 0x00, 0x00, 0x00,
  0x00, 0x00, 0x16, 0x00, 0x1c, 0x00, 0x18, 0x00, 0x17, 0x00, 0x10, 0x00,
  0x0c, 0x00, 0x08, 0x00, 0x00, 0x00, 0x00, 0x00, 0x00, 0x00, 0x07, 0x00,
  0x16, 0x00, 0x00, 0x00, 0x00, 0x00, 0x00, 0x01, 0x14, 0x00, 0x00, 0x00,
  0x14, 0x00, 0x00, 0x00, 0x11, 0x00, 0x00, 0x00, 0x00, 0x00, 0x00, 0x02,
  0x20, 0x00, 0x00, 0x00, 0xf8, 0xfb, 0xff, 0xff, 0x10, 0x00, 0x00, 0x00,
  0x61, 0x72, 0x69, 0x74, 0x68, 0x2e, 0x63, 0x6f, 0x6e, 0x73, 0x74, 0x61,
  0x6e, 0x74, 0x31, 0x32, 0x00, 0x00, 0x00, 0x00, 0x01, 0x00, 0x00, 0x00,
  0x03, 0x00, 0x00, 0x00, 0x4a, 0xfc, 0xff, 0xff, 0x00, 0x00, 0x00, 0x01,
  0x10, 0x00, 0x00, 0x00, 0x10, 0x00, 0x00, 0x00, 0x10, 0x00, 0x00, 0x00,
  0x24, 0x00, 0x00, 0x00, 0x34, 0xfc, 0xff, 0xff, 0x17, 0x00, 0x00, 0x00,
  0x73, 0x65, 0x71, 0x75, 0x65, 0x6e, 0x74, 0x69, 0x61, 0x6c, 0x2f, 0x64,
  0x65, 0x6e, 0x73, 0x65, 0x2f, 0x4d, 0x61, 0x74, 0x4d, 0x75, 0x6c, 0x00,
  0x02, 0x00, 0x00, 0x00, 0x01, 0x00, 0x00, 0x00, 0x0a, 0x00, 0x00, 0x00,
  0x8e, 0xfc, 0xff, 0xff, 0x00, 0x00, 0x00, 0x01, 0x10, 0x00, 0x00, 0x00,
  0x10, 0x00, 0x00, 0x00, 0x0f, 0x00, 0x00, 0x00, 0x20, 0x00, 0x00, 0x00,
  0x78, 0xfc, 0xff, 0xff, 0x10, 0x00, 0x00, 0x00, 0x61, 0x72, 0x69, 0x74,
  0x68, 0x2e, 0x63, 0x6f, 0x6e, 0x73, 0x74, 0x61, 0x6e, 0x74, 0x31, 0x31,
  0x00, 0x00, 0x00, 0x00, 0x02, 0x00, 0x00, 0x00, 0x0a, 0x00, 0x00, 0x00,
  0x40, 0x00, 0x00, 0x00, 0xce, 0xfc, 0xff, 0xff, 0x00, 0x00, 0x00, 0x01,
  0x10, 0x00, 0x00, 0x00, 0x10, 0x00, 0x00, 0x00, 0x0e, 0x00, 0x00, 0x00,
  0x20, 0x00, 0x00, 0x00, 0xb8, 0xfc, 0xff, 0xff, 0x10, 0x00, 0x00, 0x00,
  0x61, 0x72, 0x69, 0x74, 0x68, 0x2e, 0x63, 0x6f, 0x6e, 0x73, 0x74, 0x61,
  0x6e, 0x74, 0x31, 0x30, 0x00, 0x00, 0x00, 0x00, 0x02, 0x00, 0x00, 0x00,
  0x0a, 0x00, 0x00, 0x00, 0x40, 0x00, 0x00, 0x00, 0x0e, 0xfd, 0xff, 0xff,
  0x00, 0x00, 0x00, 0x01, 0x10, 0x00, 0x00, 0x00, 0x10, 0x00, 0x00, 0x00,
  0x0d, 0x00, 0x00, 0x00, 0x1c, 0x00, 0x00, 0x00, 0xf8, 0xfc, 0xff, 0xff,
  0x0f, 0x00, 0x00, 0x00, 0x61, 0x72, 0x69, 0x74, 0x68, 0x2e, 0x63, 0x6f,
  0x6e, 0x73, 0x74, 0x61, 0x6e, 0x74, 0x39, 0x00, 0x02, 0x00, 0x00, 0x00,
  0x0a, 0x00, 0x00, 0x00, 0x40, 0x00, 0x00, 0x00, 0x4a, 0xfd, 0xff, 0xff,
  0x00, 0x00, 0x00, 0x01, 0x10, 0x00, 0x00, 0x00, 0x10, 0x00, 0x00, 0x00,
  0x0c, 0x00, 0x00, 0x00, 0x1c, 0x00, 0x00, 0x00, 0x34, 0xfd, 0xff, 0xff,
  0x0f, 0x00, 0x00, 0x00, 0x61, 0x72, 0x69, 0x74, 0x68, 0x2e, 0x63, 0x6f,
  0x6e, 0x73, 0x74, 0x61, 0x6e, 0x74, 0x38, 0x00, 0x02, 0x00, 0x00, 0x00,
  0x0a, 0x00, 0x00, 0x00, 0x40, 0x00, 0x00, 0x00, 0x86, 0xfd, 0xff, 0xff,
  0x00, 0x00, 0x00, 0x01, 0x10, 0x00, 0x00, 0x00, 0x10, 0x00, 0x00, 0x00,
  0x0b, 0x00, 0x00, 0x00, 0x1c, 0x00, 0x00, 0x00, 0x70, 0xfd, 0xff, 0xff,
  0x0f, 0x00, 0x00, 0x00, 0x61, 0x72, 0x69, 0x74, 0x68, 0x2e, 0x63, 0x6f,
  0x6e, 0x73, 0x74, 0x61, 0x6e, 0x74, 0x37, 0x00, 0x01, 0x00, 0x00, 0x00,
  0x0a, 0x00, 0x00, 0x00, 0xbe, 0xfd, 0xff, 0xff, 0x00, 0x00, 0x00, 0x01,
  0x10, 0x00, 0x00, 0x00, 0x10, 0x00, 0x00, 0x00, 0x0a, 0x00, 0x00, 0x00,
  0x1c, 0x00, 0x00, 0x00, 0xa8, 0xfd, 0xff, 0xff, 0x0f, 0x00, 0x00, 0x00,
  0x61, 0x72, 0x69, 0x74, 0x68, 0x2e, 0x63, 0x6f, 0x6e, 0x73, 0x74, 0x61,
  0x6e, 0x74, 0x36, 0x00, 0x01, 0x00, 0x00, 0x00, 0x0a, 0x00, 0x00, 0x00,
  0xf6, 0xfd, 0xff, 0xff, 0x00, 0x00, 0x00, 0x01, 0x10, 0x00, 0x00, 0x00,
  0x10, 0x00, 0x00, 0x00, 0x09, 0x00, 0x00, 0x00, 0x1c, 0x00, 0x00, 0x00,
  0xe0, 0xfd, 0xff, 0xff, 0x0f, 0x00, 0x00, 0x00, 0x61, 0x72, 0x69, 0x74,
  0x68, 0x2e, 0x63, 0x6f, 0x6e, 0x73, 0x74, 0x61, 0x6e, 0x74, 0x35, 0x00,
  0x01, 0x00, 0x00, 0x00, 0x0a, 0x00, 0x00, 0x00, 0x2e, 0xfe, 0xff, 0xff,
  0x00, 0x00, 0x00, 0x01, 0x10, 0x00, 0x00, 0x00, 0x10, 0x00, 0x00, 0x00,
  0x08, 0x00, 0x00, 0x00, 0x1c, 0x00, 0x00, 0x00, 0x18, 0xfe, 0xff, 0xff,
  0x0f, 0x00, 0x00, 0x00, 0x61, 0x72, 0x69, 0x74, 0x68, 0x2e, 0x63, 0x6f,
  0x6e, 0x73, 0x74, 0x61, 0x6e, 0x74, 0x34, 0x00, 0x01, 0x00, 0x00, 0x00,
  0x0a, 0x00, 0x00, 0x00, 0x66, 0xfe, 0xff, 0xff, 0x00, 0x00, 0x00, 0x01,
  0x10, 0x00, 0x00, 0x00, 0x10, 0x00, 0x00, 0x00, 0x07, 0x00, 0x00, 0x00,
  0x1c, 0x00, 0x00, 0x00, 0x50, 0xfe, 0xff, 0xff, 0x0f, 0x00, 0x00, 0x00,
  0x61, 0x72, 0x69, 0x74, 0x68, 0x2e, 0x63, 0x6f, 0x6e, 0x73, 0x74, 0x61,
  0x6e, 0x74, 0x33, 0x00, 0x02, 0x00, 0x00, 0x00, 0x0a, 0x00, 0x00, 0x00,
  0x0a, 0x00, 0x00, 0x00, 0xa2, 0xfe, 0xff, 0xff, 0x00, 0x00, 0x00, 0x01,
  0x10, 0x00, 0x00, 0x00, 0x10, 0x00, 0x00, 0x00, 0x06, 0x00, 0x00, 0x00,
  0x1c, 0x00, 0x00, 0x00, 0x8c, 0xfe, 0xff, 0xff, 0x0f, 0x00, 0x00, 0x00,
  0x61, 0x72, 0x69, 0x74, 0x68, 0x2e, 0x63, 0x6f, 0x6e, 0x73, 0x74, 0x61,
  0x6e, 0x74, 0x32, 0x00, 0x02, 0x00, 0x00, 0x00, 0x0a, 0x00, 0x00, 0x00,
  0x0a, 0x00, 0x00, 0x00, 0xde, 0xfe, 0xff, 0xff, 0x00, 0x00, 0x00, 0x01,
  0x10, 0x00, 0x00, 0x00, 0x10, 0x00, 0x00, 0x00, 0x05, 0x00, 0x00, 0x00,
  0x1c, 0x00, 0x00, 0x00, 0xc8, 0xfe, 0xff, 0xff, 0x0f, 0x00, 0x00, 0x00,
  0x61, 0x72, 0x69, 0x74, 0x68, 0x2e, 0x63, 0x6f, 0x6e, 0x73, 0x74, 0x61,
  0x6e, 0x74, 0x31, 0x00, 0x02, 0x00, 0x00, 0x00, 0x0a, 0x00, 0x00, 0x00,
  0x0a, 0x00, 0x00, 0x00, 0x1a, 0xff, 0xff, 0xff, 0x00, 0x00, 0x00, 0x01,
  0x10, 0x00, 0x00, 0x00, 0x10, 0x00, 0x00, 0x00, 0x04, 0x00, 0x00, 0x00,
  0x1c, 0x00, 0x00, 0x00, 0x04, 0xff, 0xff, 0xff, 0x0e, 0x00, 0x00, 0x00,
  0x61, 0x72, 0x69, 0x74, 0x68, 0x2e, 0x63, 0x6f, 0x6e, 0x73, 0x74, 0x61,
  0x6e, 0x74, 0x00, 0x00, 0x02, 0x00, 0x00, 0x00, 0x0a, 0x00, 0x00, 0x00,
  0x0a, 0x00, 0x00, 0x00, 0x56, 0xff, 0xff, 0xff, 0x00, 0x00, 0x00, 0x01,
  0x10, 0x00, 0x00, 0x00, 0x10, 0x00, 0x00, 0x00, 0x03, 0x00, 0x00, 0x00,
  0x34, 0x00, 0x00, 0x00, 0x40, 0xff, 0xff, 0xff, 0x27, 0x00, 0x00, 0x00,
  0x73, 0x65, 0x71, 0x75, 0x65, 0x6e, 0x74, 0x69, 0x61, 0x6c, 0x2f, 0x64,
  0x65, 0x6e, 0x73, 0x65, 0x2f, 0x42, 0x69, 0x61, 0x73, 0x41, 0x64, 0x64,
  0x2f, 0x52, 0x65, 0x61, 0x64, 0x56, 0x61, 0x72, 0x69, 0x61, 0x62, 0x6c,
  0x65, 0x4f, 0x70, 0x00, 0x01, 0x00, 0x00, 0x00, 0x01, 0x00, 0x00, 0x00,
  0x00, 0x00, 0x16, 0x00, 0x14, 0x00, 0x10, 0x00, 0x00, 0x00, 0x00, 0x00,
  0x0c, 0x00, 0x08, 0x00, 0x07, 0x00, 0x00, 0x00, 0x00, 0x00, 0x06, 0x00,
  0x16, 0x00, 0x00, 0x00, 0x00, 0x00, 0x01, 0x01, 0x0c, 0x00, 0x00, 0x00,
  0x0c, 0x00, 0x00, 0x00, 0x24, 0x00, 0x00, 0x00, 0xa4, 0xff, 0xff, 0xff,
  0x15, 0x00, 0x00, 0x00, 0x73, 0x65, 0x71, 0x75, 0x65, 0x6e, 0x74, 0x69,
  0x61, 0x6c, 0x2f, 0x6c, 0x73, 0x74, 0x6d, 0x2f, 0x7a, 0x65, 0x72, 0x6f,
  0x73, 0x00, 0x00, 0x00, 0x02, 0x00, 0x00, 0x00, 0x01, 0x00, 0x00, 0x00,
  0x0a, 0x00, 0x00, 0x00, 0x00, 0x00, 0x16, 0x00, 0x18, 0x00, 0x14, 0x00,
  0x00, 0x00, 0x10, 0x00, 0x0c, 0x00, 0x08, 0x00, 0x00, 0x00, 0x00, 0x00,
  0x00, 0x00, 0x07, 0x00, 0x16, 0x00, 0x00, 0x00, 0x00, 0x00, 0x00, 0x01,
  0x14, 0x00, 0x00, 0x00, 0x14, 0x00, 0x00, 0x00, 0x01, 0x00, 0x00, 0x00,
  0x30, 0x00, 0x00, 0x00, 0x04, 0x00, 0x04, 0x00, 0x04, 0x00, 0x00, 0x00,
  0x1c, 0x00, 0x00, 0x00, 0x73, 0x65, 0x72, 0x76, 0x69, 0x6e, 0x67, 0x5f,
  0x64, 0x65, 0x66, 0x61, 0x75, 0x6c, 0x74, 0x5f, 0x6c, 0x73, 0x74, 0x6d,
  0x5f, 0x69, 0x6e, 0x70, 0x75, 0x74, 0x3a, 0x30, 0x00, 0x00, 0x00, 0x00,
  0x03, 0x00, 0x00, 0x00, 0x01, 0x00, 0x00, 0x00, 0x14, 0x00, 0x00, 0x00,
  0x40, 0x00, 0x00, 0x00, 0x04, 0x00, 0x00, 0x00, 0x40, 0x00, 0x00, 0x00,
  0x24, 0x00, 0x00, 0x00, 0x14, 0x00, 0x00, 0x00, 0x04, 0x00, 0x00, 0x00,
  0xdc, 0xff, 0xff, 0xff, 0x0e, 0x00, 0x00, 0x00, 0x00, 0x00, 0x00, 0x0e,
  0xe8, 0xff, 0xff, 0xff, 0x09, 0x00, 0x00, 0x00, 0x00, 0x00, 0x00, 0x09,
  0xf4, 0xff, 0xff, 0xff, 0x2d, 0x00, 0x00, 0x00, 0x00, 0x00, 0x00, 0x2d,
  0x0c, 0x00, 0x0c, 0x00, 0x0b, 0x00, 0x00, 0x00, 0x00, 0x00, 0x04, 0x00,
  0x0c, 0x00, 0x00, 0x00, 0x2c, 0x00, 0x00, 0x00, 0x00, 0x00, 0x00, 0x2c};
unsigned int model_tflite_len = 15240;
